{
  "version": "1.0",
  "truncation": null,
  "padding": null,
  "added_tokens": [
    {
      "id": 0,
      "content": "<|padding|>",
      "single_word": false,
      "lstrip": false,
      "rstrip": false,
      "normalized": false,
      "special": true
    },
    {
      "id": 1,
      "content": "<|im_start|>",
      "single_word": false,
      "lstrip": false,
      "rstrip": false,
      "normalized": false,
      "special": true
    },
    {
      "id": 2,
      "content": "<|im_end|>",
      "single_word": false,
      "lstrip": false,
      "rstrip": false,
      "normalized": false,
      "special": true
    }
  ],
  "normalizer": null,
  "pre_tokenizer": {
    "type": "ByteLevel",
    "add_prefix_space": false,
    "trim_offsets": true,
    "use_regex": true
  },
  "post_processor": {
    "type": "ByteLevel",
    "add_prefix_space": true,
    "trim_offsets": true,
    "use_regex": true
  },
  "decoder": {
    "type": "ByteLevel",
    "add_prefix_space": true,
    "trim_offsets": true,
    "use_regex": true
  },
  "model": {
    "type": "BPE",
    "dropout": null,
    "unk_token": null,
    "continuing_subword_prefix": null,
    "end_of_word_suffix": null,
    "fuse_unk": false,
    "byte_fallback": false,
    "ignore_merges": false,
    "vocab": {
      "<|padding|>": 0,
      "<|im_start|>": 1,
      "<|im_end|>": 2,
      "!": 3,
      "\"": 4,
      "#": 5,
      "$": 6,
      "%": 7,
      "&": 8,
      "'": 9,
      "(": 10,
      ")": 11,
      "*": 12,
      "+": 13,
      ",": 14,
      "-": 15,
      ".": 16,
      "/": 17,
      "0": 18,
      "1": 19,
      "2": 20,
      "3": 21,
      "4": 22,
      "5": 23,
      "6": 24,
      "7": 25,
      "8": 26,
      "9": 27,
      ":": 28,
      ";": 29,
      "<": 30,
      "=": 31,
      ">": 32,
      "?": 33,
      "@": 34,
      "A": 35,
      "B": 36,
      "C": 37,
      "D": 38,
      "E": 39,
      "F": 40,
      "G": 41,
      "H": 42,
      "I": 43,
      "J": 44,
      "K": 45,
      "L": 46,
      "M": 47,
      "N": 48,
      "O": 49,
      "P": 50,
      "Q": 51,
      "R": 52,
      "S": 53,
      "T": 54,
      "U": 55,
      "V": 56,
      "W": 57,
      "X": 58,
      "Y": 59,
      "Z": 60,
      "[": 61,
      "\\": 62,
      "]": 63,
      "^": 64,
      "_": 65,
      "`": 66,
      "a": 67,
      "b": 68,
      "c": 69,
      "d": 70,
      "e": 71,
      "f": 72,
      "g": 73,
      "h": 74,
      "i": 75,
      "j": 76,
      "k": 77,
      "l": 78,
      "m": 79,
      "n": 80,
      "o": 81,
      "p": 82,
      "q": 83,
      "r": 84,
      "s": 85,
      "t": 86,
      "u": 87,
      "v": 88,
      "w": 89,
      "x": 90,
      "y": 91,
      "z": 92,
      "{": 93,
      "|": 94,
      "}": 95,
      "~": 96,
      "¡": 97,
      "¢": 98,
      "£": 99,
      "¤": 100,
      "¥": 101,
      "¦": 102,
      "§": 103,
      "¨": 104,
      "©": 105,
      "ª": 106,
      "«": 107,
      "¬": 108,
      "®": 109,
      "¯": 110,
      "°": 111,
      "±": 112,
      "²": 113,
      "³": 114,
      "´": 115,
      "µ": 116,
      "¶": 117,
      "·": 118,
      "¸": 119,
      "¹": 120,
      "º": 121,
      "»": 122,
      "¼": 123,
      "½": 124,
      "¾": 125,
      "¿": 126,
      "À": 127,
      "Á": 128,
      "Â": 129,
      "Ã": 130,
      "Ä": 131,
      "Å": 132,
      "Æ": 133,
      "Ç": 134,
      "È": 135,
      "É": 136,
      "Ê": 137,
      "Ë": 138,
      "Ì": 139,
      "Í": 140,
      "Î": 141,
      "Ï": 142,
      "Ð": 143,
      "Ñ": 144,
      "Ò": 145,
      "Ó": 146,
      "Ô": 147,
      "Õ": 148,
      "Ö": 149,
      "×": 150,
      "Ø": 151,
      "Ù": 152,
      "Ú": 153,
      "Û": 154,
      "Ü": 155,
      "Ý": 156,
      "Þ": 157,
      "ß": 158,
      "à": 159,
      "á": 160,
      "â": 161,
      "ã": 162,
      "ä": 163,
      "å": 164,
      "æ": 165,
      "ç": 166,
      "è": 167,
      "é": 168,
      "ê": 169,
      "ë": 170,
      "ì": 171,
      "í": 172,
      "î": 173,
      "ï": 174,
      "ð": 175,
      "ñ": 176,
      "ò": 177,
      "ó": 178,
      "ô": 179,
      "õ": 180,
      "ö": 181,
      "÷": 182,
      "ø": 183,
      "ù": 184,
      "ú": 185,
      "û": 186,
      "ü": 187,
      "ý": 188,
      "þ": 189,
      "ÿ": 190,
      "Ā": 191,
      "ā": 192,
      "Ă": 193,
      "ă": 194,
      "Ą": 195,
      "ą": 196,
      "Ć": 197,
      "ć": 198,
      "Ĉ": 199,
      "ĉ": 200,
      "Ċ": 201,
      "ċ": 202,
      "Č": 203,
      "č": 204,
      "Ď": 205,
      "ď": 206,
      "Đ": 207,
      "đ": 208,
      "Ē": 209,
      "ē": 210,
      "Ĕ": 211,
      "ĕ": 212,
      "Ė": 213,
      "ė": 214,
      "Ę": 215,
      "ę": 216,
      "Ě": 217,
      "ě": 218,
      "Ĝ": 219,
      "ĝ": 220,
      "Ğ": 221,
      "ğ": 222,
      "Ġ": 223,
      "ġ": 224,
      "Ģ": 225,
      "ģ": 226,
      "Ĥ": 227,
      "ĥ": 228,
      "Ħ": 229,
      "ħ": 230,
      "Ĩ": 231,
      "ĩ": 232,
      "Ī": 233,
      "ī": 234,
      "Ĭ": 235,
      "ĭ": 236,
      "Į": 237,
      "į": 238,
      "İ": 239,
      "ı": 240,
      "Ĳ": 241,
      "ĳ": 242,
      "Ĵ": 243,
      "ĵ": 244,
      "Ķ": 245,
      "ķ": 246,
      "ĸ": 247,
      "Ĺ": 248,
      "ĺ": 249,
      "Ļ": 250,
      "ļ": 251,
      "Ľ": 252,
      "ľ": 253,
      "Ŀ": 254,
      "ŀ": 255,
      "Ł": 256,
      "ł": 257,
      "Ń": 258,
      "ä¸": 259,
      "çļ": 260,
      "çļĦ": 261,
      "ï¼": 262,
      "ï¼Į": 263,
      "äº": 264,
      "æĪ": 265,
      "å¤": 266,
      "åľ": 267,
      "ä¸Ģ": 268,
      "ä»": 269,
      "æĪĳ": 270,
      "åı": 271,
      "æľ": 272,
      "è¿": 273,
      "æĺ": 274,
      "ä½": 275,
      "åľ¨": 276,
      "ä¹": 277,
      "ãĢ": 278,
      "åĲ": 279,
      "æĺ¯": 280,
      "æĹ": 281,
      "å°": 282,
      "ä¸į": 283,
      "å®": 284,
      "åĪ": 285,
      "åħ": 286,
      "äºĨ": 287,
      "ãĢĤ": 288,
      "è¯": 289,
      "æĿ": 290,
      "åŃ": 291,
      "æľī": 292,
      "çĿ": 293,
      "äºº": 294,
      "ä½ł": 295,
      "çĶ": 296,
      "çļĦæ": 297,
      "éĩ": 298,
      "âĢ": 299,
      "ç»": 300,
      "çļĦå": 301,
      "æī": 302,
      "çĿĢ": 303,
      "ä¸Ĭ": 304,
      "åį": 305,
      "å¥": 306,
      "åĩ": 307,
      "èĢ": 308,
      "çļĦç": 309,
      "æ²": 310,
      "ä¸ª": 311,
      "èµ": 312,
      "ä»¬": 313,
      "å¼": 314,
      "å¿": 315,
      "å¾": 316,
      "ä¼": 317,
      "å¹": 318,
      "çļĦè": 319,
      "æŃ": 320,
      "çľ": 321,
      "åĨ": 322,
      "æĿ¥": 323,
      "åĽ": 324,
      "å·": 325,
      "çļĦé": 326,
      "åŃĲ": 327,
      "æĥ": 328,
      "éĩĮ": 329,
      "æĬ": 330,
      "è¿Ļ": 331,
      "å¤©": 332,
      "åľ°": 333,
      "åİ": 334,
      "æ°": 335,
      "éĤ": 336,
      "éĹ": 337,
      "åĴ": 338,
      "ĥ½": 339,
      "æł": 340,
      "è®": 341,
      "éĿ": 342,
      "ä»ĸ": 343,
      "ä¸ĭ": 344,
      "éĤ£": 345,
      "æµ": 346,
      "ä¸Ń": 347,
      "è§": 348,
      "åĪ°": 349,
      "æĸ": 350,
      "é£": 351,
      "æĹ¶": 352,
      "å¦": 353,
      "è¿ĩ": 354,
      "å¯": 355,
      "åĴĮ": 356,
      "èĩ": 357,
      "æĢ": 358,
      "çĽ": 359,
      "å¤§": 360,
      "åĬ": 361,
      "éĽ": 362,
      "åĩº": 363,
      "å±": 364,
      "åĳ": 365,
      "æŀ": 366,
      "çĶŁ": 367,
      "å½": 368,
      "åº": 369,
      "å°±": 370,
      "è¡": 371,
      "å¸": 372,
      "ä¸Ģä¸ª": 373,
      "éĢ": 374,
      "è½": 375,
      "èĬ": 376,
      "éģ": 377,
      "çº": 378,
      "æ¯": 379,
      "çī": 380,
      "ä¹Ł": 381,
      "ç§": 382,
      "æĹł": 383,
      "ç©": 384,
      "åıª": 385,
      "çģ": 386,
      "å®ĥ": 387,
      "è·": 388,
      "åİ»": 389,
      "é»": 390,
      "ä¸º": 391,
      "æ¸": 392,
      "æ³": 393,
      "æķ": 394,
      "æĭ": 395,
      "åħī": 396,
      "å°ı": 397,
      "éĺ": 398,
      "å¦Ĥ": 399,
      "èĩª": 400,
      "çĪ": 401,
      "æĪĳä»¬": 402,
      "æ²¡": 403,
      "èĢĮ": 404,
      "èµ·": 405,
      "âĢĶ": 406,
      "æĦ": 407,
      "æ°´": 408,
      "çľĭ": 409,
      "è¦": 410,
      "åī": 411,
      "è¯´": 412,
      "è¢": 413,
      "è¾": 414,
      "å¤´": 415,
      "å¼Ģ": 416,
      "çŁ": 417,
      "åĲİ": 418,
      "ä¹ĭ": 419,
      "è¦ģ": 420,
      "å£": 421,
      "åĥ": 422,
      "çĦ": 423,
      "æĻ": 424,
      "åĵ": 425,
      "æİ": 426,
      "çİ": 427,
      "æ´": 428,
      "æĥ³": 429,
      "å¤ļ": 430,
      "å¹´": 431,
      "ä¹Ī": 432,
      "åĥı": 433,
      "ä»¥": 434,
      "éĥ½": 435,
      "è¿ĺ": 436,
      "èī": 437,
      "ä»İ": 438,
      "éĻ": 439,
      "ä¼ļ": 440,
      "è°": 441,
      "æĽ": 442,
      "å¥¹": 443,
      "æĪĲ": 444,
      "å¿ĥ": 445,
      "æĬĬ": 446,
      "åĿ": 447,
      "èº": 448,
      "æ»": 449,
      "å¾Ĺ": 450,
      "é£İ": 451,
      "çĥ": 452,
      "è¢«": 453,
      "çĻ": 454,
      "åĮ": 455,
      "éķ": 456,
      "åģ": 457,
      "éĹ´": 458,
      "èµ°": 459,
      "æĮ": 460,
      "çĦ¶": 461,
      "æ¬": 462,
      "èĬ±": 463,
      "èį": 464,
      "äºİ": 465,
      "ç¾": 466,
      "èĥ½": 467,
      "å¤ľ": 468,
      "åı¯": 469,
      "èĲ": 470,
      "ç«": 471,
      "åĢ": 472,
      "ãĢģ": 473,
      "æĶ": 474,
      "éĿ¢": 475,
      "ç©º": 476,
      "æ·": 477,
      "èĦ": 478,
      "äºĽ": 479,
      "åĸ": 480,
      "éļ": 481,
      "èī²": 482,
      "çĤ": 483,
      "ä¸İ": 484,
      "æł·": 485,
      "æ²¡æľī": 486,
      "åıĳ": 487,
      "çķ": 488,
      "æģ": 489,
      "éģĵ": 490,
      "å£°": 491,
      "ï¼ļ": 492,
      "æľĪ": 493,
      "é¢": 494,
      "æļ": 495,
      "å¥½": 496,
      "èº«": 497,
      "çĻ½": 498,
      "è§ģ": 499,
      "åīį": 500,
      "âĢľ": 501,
      "å·²": 502,
      "åĽŀ": 503,
      "åĬ¨": 504,
      "ä¿": 505,
      "å±±": 506,
      "âĢĿ": 507,
      "ç¬": 508,
      "éķ¿": 509,
      "æ¶": 510,
      "èĤ": 511,
      "èĲ½": 512,
      "æ±": 513,
      "âĢ¦": 514,
      "èĪ": 515,
      "çĪ±": 516,
      "è¿ľ": 517,
      "æĹ¥": 518,
      "èĭ": 519,
      "æ¢": 520,
      "è®©": 521,
      "åĲĳ": 522,
      "è´": 523,
      "ç¥": 524,
      "åıĪ": 525,
      "çĭ": 526,
      "æĤ": 527,
      "Ħ¿": 528,
      "æīĭ": 529,
      "è¶": 530,
      "ç»ı": 531,
      "è¯Ĺ": 532,
      "å¯¹": 533,
      "é¸": 534,
      "æĥħ": 535,
      "çĶ¨": 536,
      "åĦ¿": 537,
      "èĢģ": 538,
      "ï¼Ł": 539,
      "ç¦": 540,
      "ç¼": 541,
      "å®¶": 542,
      "æµģ": 543,
      "ä¸ĸ": 544,
      "æĺİ": 545,
      "ä¾": 546,
      "é¡": 547,
      "å·±": 548,
      "âĢĶâĢĶ": 549,
      "çª": 550,
      "é»ĳ": 551,
      "ä½ĵ": 552,
      "äºĭ": 553,
      "çĤ¹": 554,
      "çŁ¥": 555,
      "è·¯": 556,
      "æīĢ": 557,
      "åĨį": 558,
      "èĩªå·±": 559,
      "äº²": 560,
      "å§": 561,
      "æŁ": 562,
      "æĸ¹": 563,
      "åķ": 564,
      "èĥ": 565,
      "æŃ»": 566,
      "æľĢ": 567,
      "éĽ¨": 568,
      "«ĺ": 569,
      "è¿Ľ": 570,
      "éľ": 571,
      "ç§į": 572,
      "æŃ¤": 573,
      "çŃ": 574,
      "æłĳ": 575,
      "æĳ": 576,
      "ä»Ģ": 577,
      "æ¼": 578,
      "å²": 579,
      "å°Ĩ": 580,
      "è¾¹": 581,
      "è¡Į": 582,
      "é©": 583,
      "åĶ": 584,
      "å½ĵ": 585,
      "æµ·": 586,
      "çĹ": 587,
      "ä»Ģä¹Ī": 588,
      "åŁ": 589,
      "çĲ": 590,
      "çİ°": 591,
      "æīĵ": 592,
      "çļĦäºº": 593,
      "çľ¼": 594,
      "åı£": 595,
      "é«ĺ": 596,
      "æ»¡": 597,
      "èĢħ": 598,
      "ç»Ļ": 599,
      "éĺ³": 600,
      "æľĽ": 601,
      "ç´": 602,
      "è£": 603,
      "å¤ĸ": 604,
      "éĴ": 605,
      "æ¬¡": 606,
      "ä»ĸä»¬": 607,
      "é¦": 608,
      "æ¡": 609,
      "é£ŀ": 610,
      "æĺ¥": 611,
      "èĻ": 612,
      "Ł³": 613,
      "æĪĸ": 614,
      "åĲĮ": 615,
      "å¥³": 616,
      "æĦı": 617,
      "æ´»": 618,
      "åħ¥": 619,
      "æ·±": 620,
      "éĵ": 621,
      "éĿĻ": 622,
      "æŃ£": 623,
      "ç¿": 624,
      "æĽ´": 625,
      "ä½Ĩ": 626,
      "çģ«": 627,
      "çĽ¸": 628,
      "ç²": 629,
      "å¤Ħ": 630,
      "å¤ª": 631,
      "éħ": 632,
      "æ°Ķ": 633,
      "çīĩ": 634,
      "æħ": 635,
      "åĲ¬": 636,
      "çĸ": 637,
      "éª": 638,
      "æŀľ": 639,
      "å¾Ī": 640,
      "èįī": 641,
      "è±": 642,
      "éĶ": 643,
      "æĺŁ": 644,
      "ï¼ģ": 645,
      "åįģ": 646,
      "ä¸¤": 647,
      "äº®": 648,
      "è½¦": 649,
      "èħ": 650,
      "æį": 651,
      "çī©": 652,
      "å®ī": 653,
      "ä¸ī": 654,
      "ç®": 655,
      "ä½ı": 656,
      "å¢": 657,
      "æ¸ħ": 658,
      "åĪĨ": 659,
      "å¤±": 660,
      "åıĺ": 661,
      "ç¾İ": 662,
      "è½»": 663,
      "éĩį": 664,
      "æĶ¾": 665,
      "æ¢¦": 666,
      "ç½": 667,
      "åĳ½": 668,
      "ç¢": 669,
      "å®ŀ": 670,
      "æ¯ı": 671,
      "äºĳ": 672,
      "éŁ³": 673,
      "çŁ³": 674,
      "ç¦»": 675,
      "ç¥ŀ": 676,
      "éĽª": 677,
      "éĥ": 678,
      "åĩł": 679,
      "åı¶": 680,
      "æ²³": 681,
      "æ²ī": 682,
      "å½±": 683,
      "çº¢": 684,
      "æļĹ": 685,
      "æı": 686,
      "è¯Ŀ": 687,
      "éĹ¨": 688,
      "åľº": 689,
      "æĦŁ": 690,
      "çĽ´": 691,
      "çķĮ": 692,
      "é»Ħ": 693,
      "é¥": 694,
      "éĨ": 695,
      "çł": 696,
      "åĢĻ": 697,
      "ä½ľ": 698,
      "åĨĻ": 699,
      "ä¸įæĺ¯": 700,
      "çľŁ": 701,
      "å¸¦": 702,
      "è°ģ": 703,
      "æĸ°": 704,
      "åį´": 705,
      "æĿ¡": 706,
      "âĢ¦âĢ¦": 707,
      "¨Ģ": 708,
      "çļĦä¸Ģ": 709,
      "æ£": 710,
      "è¶Ĭ": 711,
      "å®ļ": 712,
      "ä»Ĭ": 713,
      "è¯Ń": 714,
      "è®°": 715,
      "æ¯Ķ": 716,
      "åĽł": 717,
      "å°ĳ": 718,
      "æ¹": 719,
      "åľŁ": 720,
      "é©¬": 721,
      "åŃĹ": 722,
      "å¼ł": 723,
      "å®ĥä»¬": 724,
      "æĺ¯ä¸Ģ": 725,
      "ä½ķ": 726,
      "åł": 727,
      "æĻļ": 728,
      "çļĦæĹ¶": 729,
      "çŁ¥éģĵ": 730,
      "ç©¿": 731,
      "çŃī": 732,
      "æľ¨": 733,
      "ä¸ĸçķĮ": 734,
      "ä¼¤": 735,
      "è®¸": 736,
      "å·´": 737,
      "èĮ": 738,
      "åĲį": 739,
      "è¥": 740,
      "ä¿¡": 741,
      "çļĦå¿": 742,
      "éĿĴ": 743,
      "åĪ«": 744,
      "åı¯ä»¥": 745,
      "åı«": 746,
      "è±¡": 747,
      "å¹³": 748,
      "åĪĩ": 749,
      "åħ¶": 750,
      "æŃĮ": 751,
      "æľµ": 752,
      "æĹ©": 753,
      "æ³ķ": 754,
      "å¹¶": 755,
      "çħ": 756,
      "åģļ": 757,
      "æĴ": 758,
      "éŃ": 759,
      "åĽ½": 760,
      "ä½¿": 761,
      "åĽĽ": 762,
      "åĿĲ": 763,
      "ä¸Ģåıª": 764,
      "è¨Ģ": 765,
      "ä¸Ģæł·": 766,
      "è¥¿": 767,
      "æĪĳçļĦ": 768,
      "éĤ£äºĽ": 769,
      "ç¬ĳ": 770,
      "ç±": 771,
      "çĿ¡": 772,
      "é¸Ł": 773,
      "åŃ©": 774,
      "çĮ": 775,
      "åħ³": 776,
      "å§ĭ": 777,
      "éĩİ": 778,
      "ç¾¤": 779,
      "åŃ¦": 780,
      "åŁİ": 781,
      "çķĻ": 782,
      "åĬĽ": 783,
      "æľª": 784,
      "å°±æĺ¯": 785,
      "åĪ»": 786,
      "åķĬ": 787,
      "äºĮ": 788,
      "æ¯į": 789,
      "æīį": 790,
      "çĶµ": 791,
      "å¾Ģ": 792,
      "è§ī": 793,
      "åİŁ": 794,
      "ç§ĭ": 795,
      "ç»Ī": 796,
      "æĪ¿": 797,
      "è½¬": 798,
      "ç¨": 799,
      "æľ¬": 800,
      "ä»£": 801,
      "åº¦": 802,
      "æĢ»": 803,
      "å¹²": 804,
      "æĽ¾": 805,
      "ä¹¦": 806,
      "åħ¨": 807,
      "ç«Ļ": 808,
      "çªĹ": 809,
      "ä¸ĩ": 810,
      "ä¹¡": 811,
      "éħĴ": 812,
      "æŀĹ": 813,
      "éĩĳ": 814,
      "±¼": 815,
      "è¿Ļä¸ª": 816,
      "çĭ¬": 817,
      "æ®": 818,
      "æº": 819,
      "ä½Ľ": 820,
      "çļĦèĦ": 821,
      "çļĦçľ": 822,
      "åĲĥ": 823,
      "æī¾": 824,
      "åĨħ": 825,
      "åĨ·": 826,
      "æ¥": 827,
      "ç»ĵ": 828,
      "èİ": 829,
      "åĺ": 830,
      "å·²ç»ı": 831,
      "å¤©ç©º": 832,
      "ï¼Ľ": 833,
      "éĨĴ": 834,
      "çĵ": 835,
      "å¾®": 836,
      "ç»¿": 837,
      "æľº": 838,
      "çģµ": 839,
      "åįĬ": 840,
      "åģľ": 841,
      "èĵ": 842,
      "çĨ": 843,
      "èĹ": 844,
      "åĮĸ": 845,
      "åºķ": 846,
      "äºĨä¸Ģ": 847,
      "çĲĨ": 848,
      "èĩ³": 849,
      "å¿«": 850,
      "é»ĺ": 851,
      "å¡": 852,
      "æħ¢": 853,
      "ä¸ľ": 854,
      "æīĢæľī": 855,
      "çļĦçģ": 856,
      "èľ": 857,
      "éļ¾": 858,
      "æĹ¶éĹ´": 859,
      "è¡Ģ": 860,
      "åĲ§": 861,
      "æİ¥": 862,
      "æľīä¸Ģ": 863,
      "æģ¯": 864,
      "ä¹Ĳ": 865,
      "ç³": 866,
      "æ°¸": 867,
      "çģ¯": 868,
      "æĸŃ": 869,
      "æĢĿ": 870,
      "å®Į": 871,
      "å»": 872,
      "åı¦": 873,
      "çļĦæī": 874,
      "çº¿": 875,
      "åįĹ": 876,
      "è¿ĳ": 877,
      "çļĦå¿ĥ": 878,
      "å¸¸": 879,
      "æŃ¥": 880,
      "æ¬¢": 881,
      "èĦļ": 882,
      "èĿ": 883,
      "å°½": 884,
      "çľĭè§ģ": 885,
      "çĪ¶": 886,
      "åŃ¤": 887,
      "å¨": 888,
      "åįĥ": 889,
      "ç´§": 890,
      "è¿Ļæł·": 891,
      "æĲ": 892,
      "æķ´": 893,
      "èĬĤ": 894,
      "ä¹ħ": 895,
      "çĶŁæ´»": 896,
      "é±¼": 897,
      "æĮĩ": 898,
      "ä»¿": 899,
      "å¸Ĥ": 900,
      "åħ¬": 901,
      "åĸľ": 902,
      "åĲ¹": 903,
      "å¦Ĥæŀľ": 904,
      "çļĦè¡": 905,
      "éĹ®": 906,
      "ä¸Ģæ¬¡": 907,
      "æİī": 908,
      "åŀ": 909,
      "çļĦæ°": 910,
      "åıĬ": 911,
      "äºĶ": 912,
      "è¡£": 913,
      "æł¹": 914,
      "åĲĪ": 915,
      "é¹": 916,
      "éĥ¨": 917,
      "æ²Ļ": 918,
      "èģ": 919,
      "æ¸©": 920,
      "æĸĩ": 921,
      "çħ§": 922,
      "èĽ": 923,
      "åı¤": 924,
      "æĢ§": 925,
      "ä¸įèĥ½": 926,
      "é¦Ļ": 927,
      "çĿĽ": 928,
      "ä¾¿": 929,
      "çĥŃ": 930,
      "ç»Ĩ": 931,
      "çĹĽ": 932,
      "è¸": 933,
      "åıĹ": 934,
      "æķ£": 935,
      "æķ°": 936,
      "åĿĹ": 937,
      "è·Ł": 938,
      "åıĮ": 939,
      "å¿µ": 940,
      "æ¶Ī": 941,
      "ä¼¼": 942,
      "çĶ±": 943,
      "å¼Ģå§ĭ": 944,
      "çĥŁ": 945,
      "èı": 946,
      "æ½": 947,
      "çļĦèº": 948,
      "çļĦé£": 949,
      "è§Ĩ": 950,
      "åı°": 951,
      "è¿ĺæĺ¯": 952,
      "çı": 953,
      "å¿ħ": 954,
      "æ¸¸": 955,
      "ä¾Ŀ": 956,
      "ç«ĭ": 957,
      "åº§": 958,
      "çļĦå¥": 959,
      "éŃĤ": 960,
      "éļı": 961,
      "åĮĹ": 962,
      "åĽłä¸º": 963,
      "èĪ¬": 964,
      "èĨ": 965,
      "æĺ¥å¤©": 966,
      "éĹª": 967,
      "å¤į": 968,
      "çļĦå°ı": 969,
      "ç¤": 970,
      "çĬ": 971,
      "æŀ£": 972,
      "çļĦçľ¼": 973,
      "è§£": 974,
      "å¾ħ": 975,
      "ä»¿ä½Ľ": 976,
      "çİ°åľ¨": 977,
      "åĢĴ": 978,
      "æĹ§": 979,
      "å¿ĺ": 980,
      "åĵª": 981,
      "åŃ©åŃĲ": 982,
      "äº¤": 983,
      "ç»Ŀ": 984,
      "æĭī": 985,
      "æĿĳ": 986,
      "åĨ¬": 987,
      "æĪĳåľ¨": 988,
      "åĵį": 989,
      "èĭ¦": 990,
      "æµª": 991,
      "ä½İ": 992,
      "çĶŁåĳ½": 993,
      "ï¼ī": 994,
      "èµ·æĿ¥": 995,
      "ç¡": 996,
      "åįĪ": 997,
      "ä¸»": 998,
      "çļĦèĬ": 999,
      "èĹı": 1000,
      "åĳ¼": 1001,
      "èĵĿ": 1002,
      "åıªæľī": 1003,
      "èĥĮ": 1004,
      "çĶ·": 1005,
      "éĤ£ä¹Ī": 1006,
      "å°ĺ": 1007,
      "çļĦæł": 1008,
      "åŃĺ": 1009,
      "å½¢": 1010,
      "çŀ": 1011,
      "çļ®": 1012,
      "å®¹": 1013,
      "åıªæĺ¯": 1014,
      "åĲĹ": 1015,
      "å¤ªéĺ³": 1016,
      "ä¸ĢåĪĩ": 1017,
      "çļĦèº«": 1018,
      "è§Ĵ": 1019,
      "ï¼Ī": 1020,
      "åĬł": 1021,
      "çļĦæīĭ": 1022,
      "è¯¥": 1023,
      "æĢĢ": 1024,
      "é¡¶": 1025,
      "å·´æŀ£": 1026,
      "æ³ª": 1027,
      "å¿Ĩ": 1028,
      "çľĭåĪ°": 1029,
      "éļĲ": 1030,
      "ä¹Łä¸į": 1031,
      "åĪļ": 1032,
      "æ¨": 1033,
      "é£ĺ": 1034,
      "æĶ¶": 1035,
      "æĢİ": 1036,
      "ä½į": 1037,
      "ä¸Ģä¸ªäºº": 1038,
      "åĶ±": 1039,
      "çĩ": 1040,
      "åľ¨æĪĳ": 1041,
      "é¦ĸ": 1042,
      "çļĦæĹ¶åĢĻ": 1043,
      "éº": 1044,
      "çł´": 1045,
      "æ±Ł": 1046,
      "åĽŃ": 1047,
      "åħĪ": 1048,
      "éľ²": 1049,
      "ä¸ĭæĿ¥": 1050,
      "é²": 1051,
      "åĻ": 1052,
      "é¼": 1053,
      "æĪĳä¸į": 1054,
      "å¯Ĥ": 1055,
      "äº¡": 1056,
      "çĽ®": 1057,
      "æĻ¨": 1058,
      "è¿ŀ": 1059,
      "æ¯įäº²": 1060,
      "éª¨": 1061,
      "å¯Ĩ": 1062,
      "æ¸Ĳ": 1063,
      "æ¥¼": 1064,
      "å²ģ": 1065,
      "éĢļ": 1066,
      "èĦ¸": 1067,
      "åıį": 1068,
      "ç¬¬": 1069,
      "è¡Ĺ": 1070,
      "åįķ": 1071,
      "è¿·": 1072,
      "è¯į": 1073,
      "å¤ı": 1074,
      "éĺ³åħī": 1075,
      "çļĦéĽ": 1076,
      "èĻļ": 1077,
      "ç¢İ": 1078,
      "ä¼ł": 1079,
      "è¿ĺæľī": 1080,
      "æĹłæ³ķ": 1081,
      "è¿Ĳ": 1082,
      "çļĦåľ°": 1083,
      "åĳĬ": 1084,
      "ä¸Ģçīĩ": 1085,
      "å¸ĥ": 1086,
      "åĨ°": 1087,
      "ä»»": 1088,
      "èļ": 1089,
      "çªģ": 1090,
      "å©": 1091,
      "è·³": 1092,
      "éľĢ": 1093,
      "çļĦæ²": 1094,
      "çļĦæĸ": 1095,
      "çļĦæµ": 1096,
      "éĿŀ": 1097,
      "æľĢåĲİ": 1098,
      "ä¸ĢäºĽ": 1099,
      "çļĦé»": 1100,
      "éĥ½æĺ¯": 1101,
      "éĢı": 1102,
      "ä½łä»¬": 1103,
      "è®¤": 1104,
      "è¯»": 1105,
      "çĶ»": 1106,
      "åºĶ": 1107,
      "çļĦåĨ": 1108,
      "æ¼«": 1109,
      "ç¿»": 1110,
      "åĪĢ": 1111,
      "æĳĩ": 1112,
      "æĺı": 1113,
      "ä¸½": 1114,
      "çģ°": 1115,
      "åı¥": 1116,
      "è¿Ļæĺ¯": 1117,
      "ä»į": 1118,
      "æĪĸèĢħ": 1119,
      "æŀĿ": 1120,
      "åĩºæĿ¥": 1121,
      "çļĦé£İ": 1122,
      "å¢Ļ": 1123,
      "åį³": 1124,
      "æĬ±": 1125,
      "åĳ³": 1126,
      "å¤§åľ°": 1127,
      "æĦ¿": 1128,
      "æĥĬ": 1129,
      "æ°ĳ": 1130,
      "åĲ¸": 1131,
      "è®©æĪĳ": 1132,
      "è£ħ": 1133,
      "æ¯Ľ": 1134,
      "å±ĭ": 1135,
      "åįİ": 1136,
      "éĵģ": 1137,
      "åľ¨ä¸Ģ": 1138,
      "çİĭ": 1139,
      "çº¸": 1140,
      "æľīäºº": 1141,
      "æķħ": 1142,
      "ç»Ń": 1143,
      "çļĦå½": 1144,
      "èĤī": 1145,
      "è¯·": 1146,
      "åĩī": 1147,
      "è¿ĻäºĽ": 1148,
      "æ»´": 1149,
      "çĪ¶äº²": 1150,
      "æĪĳæĺ¯": 1151,
      "è·ĳ": 1152,
      "ä¸Ģç§į": 1153,
      "çļĦçĪ": 1154,
      "æĿİ": 1155,
      "çļĦå£": 1156,
      "çļĦåĳ": 1157,
      "çļĦå¹": 1158,
      "ä½łçļĦ": 1159,
      "é¢Ĺ": 1160,
      "éĩı": 1161,
      "æ¤": 1162,
      "è¶³": 1163,
      "ä¸ĢçĽ´": 1164,
      "èĳ": 1165,
      "å²¸": 1166,
      "å¥Ķ": 1167,
      "ç®¡": 1168,
      "åĪ°äºĨ": 1169,
      "æľŁ": 1170,
      "æľĿ": 1171,
      "èį¡": 1172,
      "çļĦéĤ": 1173,
      "å¦Ī": 1174,
      "åĳ¢": 1175,
      "è¡¨": 1176,
      "ä¸Ŀ": 1177,
      "æĻ¯": 1178,
      "åĵŃ": 1179,
      "çĥ§": 1180,
      "ä¹ī": 1181,
      "åİĨ": 1182,
      "éĺ¿": 1183,
      "çļĦå±": 1184,
      "ç¦ı": 1185,
      "éĺ´": 1186,
      "æŃ¢": 1187,
      "è¾¾": 1188,
      "æ´Ĺ": 1189,
      "æ³¥": 1190,
      "ä¹±": 1191,
      "å¯»": 1192,
      "èĪŀ": 1193,
      "çĻ¾": 1194,
      "åĭ": 1195,
      "åħ«": 1196,
      "åŃ£": 1197,
      "åĮħ": 1198,
      "æĪĲä¸º": 1199,
      "æĤ²": 1200,
      "çĹħ": 1201,
      "èĴ": 1202,
      "å°Ķ": 1203,
      "ä¸ĢæĿ¡": 1204,
      "çļĦéĿ": 1205,
      "åıĭ": 1206,
      "æĢķ": 1207,
      "ç±»": 1208,
      "è¹": 1209,
      "ä¹İ": 1210,
      "å·¥": 1211,
      "éģĩ": 1212,
      "ä¸įä¼ļ": 1213,
      "æıĲ": 1214,
      "éĻĪ": 1215,
      "æĽ²": 1216,
      "èĢ³": 1217,
      "å±Ĥ": 1218,
      "çĶ°": 1219,
      "çļĦå£°": 1220,
      "æ¹ĸ": 1221,
      "èĸ": 1222,
      "è¿ĻéĩĮ": 1223,
      "æļĸ": 1224,
      "é»ĳæļĹ": 1225,
      "éĤ£ä¸ª": 1226,
      "éķľ": 1227,
      "åĸĿ": 1228,
      "çļĦæŃ": 1229,
      "çĦ¶åĲİ": 1230,
      "çļĦæ°´": 1231,
      "çļĦèĬ±": 1232,
      "å¹¸": 1233,
      "ç¼ĵ": 1234,
      "åĤ": 1235,
      "è¯Ĩ": 1236,
      "çļĦå¤§": 1237,
      "å°±åĥı": 1238,
      "æŁĲ": 1239,
      "æ³¢": 1240,
      "æĵ": 1241,
      "æŁĶ": 1242,
      "çļĦéĺ": 1243,
      "çļĦéĤ£": 1244,
      "çļĦæ³": 1245,
      "æĿ¯": 1246,
      "æľį": 1247,
      "å°ĸ": 1248,
      "æĪĳæĥ³": 1249,
      "éľĢè¦ģ": 1250,
      "éĻ¢": 1251,
      "æĮģ": 1252,
      "å¦ĤæŃ¤": 1253,
      "é¡»": 1254,
      "å½Ĵ": 1255,
      "çļĦäºĭ": 1256,
      "çļĦåħī": 1257,
      "ä¸Ķ": 1258,
      "æĿ¾": 1259,
      "æĪĺ": 1260,
      "çļĦæĥ": 1261,
      "å¤Ł": 1262,
      "éĴŁ": 1263,
      "çļĦèĥ": 1264,
      "æĭ¥": 1265,
      "æĺ¯æĪĳ": 1266,
      "éĢł": 1267,
      "çĨŁ": 1268,
      "åŃ¤çĭ¬": 1269,
      "ä¸ĥ": 1270,
      "åĹ": 1271,
      "æĩ": 1272,
      "å¯Ĵ": 1273,
      "çļĦè·": 1274,
      "é¾": 1275,
      "æľĪäº®": 1276,
      "åĪĿ": 1277,
      "ä¸´": 1278,
      "çªģçĦ¶": 1279,
      "å¥³äºº": 1280,
      "çļĦåĽ": 1281,
      "çļĦå¥³": 1282,
      "æĹ¶åĢĻ": 1283,
      "åĸĬ": 1284,
      "ä¹Į": 1285,
      "çļĦæ¢": 1286,
      "å³": 1287,
      "æ£µ": 1288,
      "åı²": 1289,
      "åįĩ": 1290,
      "åı¯èĥ½": 1291,
      "çļĦæ¸": 1292,
      "è¿ĩåİ»": 1293,
      "ä¼¸": 1294,
      "çļĦçº": 1295,
      "é¸£": 1296,
      "éĢģ": 1297,
      "è®º": 1298,
      "åºĬ": 1299,
      "éĺµ": 1300,
      "è¯Ĺäºº": 1301,
      "æµ®": 1302,
      "çļĦåį": 1303,
      "èĭ¥": 1304,
      "ä»ħ": 1305,
      "æ¹¿": 1306,
      "çļĦç§": 1307,
      "åĪ©": 1308,
      "çļĦç¾": 1309,
      "åłĤ": 1310,
      "èįĴ": 1311,
      "éĻ¤": 1312,
      "éģĹ": 1313,
      "åĽ´": 1314,
      "çĲĥ": 1315,
      "çĳ": 1316,
      "çļĦæĺ¯": 1317,
      "çĺ": 1318,
      "åĪ¶": 1319,
      "å±ħ": 1320,
      "ç£": 1321,
      "çīĽ": 1322,
      "åĸľæ¬¢": 1323,
      "æĹ¥åŃĲ": 1324,
      "è¿½": 1325,
      "çļĦå£°éŁ³": 1326,
      "åıĺæĪĲ": 1327,
      "ä¹Ŀ": 1328,
      "åĲĦ": 1329,
      "æļ´": 1330,
      "åĿĲåľ¨": 1331,
      "æ¬²": 1332,
      "ä¸ĢçĤ¹": 1333,
      "çľ¼çĿĽ": 1334,
      "éĶĻ": 1335,
      "éĽ¾": 1336,
      "èıľ": 1337,
      "çļĦèĤ": 1338,
      "ä¹ĭåĲİ": 1339,
      "å¼º": 1340,
      "æĳ¸": 1341,
      "ä¸įè§ģ": 1342,
      "ä¿Ŀ": 1343,
      "è¯ī": 1344,
      "å¤ľæĻļ": 1345,
      "æĮĤ": 1346,
      "å¼ı": 1347,
      "åĽ¾": 1348,
      "çļĦæĦ": 1349,
      "åıĸ": 1350,
      "ç²¾": 1351,
      "æ·¡": 1352,
      "é£Ł": 1353,
      "çļĦèĦ¸": 1354,
      "è¿¹": 1355,
      "ä¹ĭéĹ´": 1356,
      "è°Ī": 1357,
      "ä¸įè¦ģ": 1358,
      "æį¢": 1359,
      "é²ľ": 1360,
      "çļĦæķ": 1361,
      "ä¹ł": 1362,
      "å¤ļä¹Ī": 1363,
      "å¤ļå°ĳ": 1364,
      "è°·": 1365,
      "åĳ¨": 1366,
      "ä¹Łæĺ¯": 1367,
      "åĺ´": 1368,
      "çĩĥ": 1369,
      "èº«ä½ĵ": 1370,
      "åĲ¦": 1371,
      "å®Ī": 1372,
      "ç»§": 1373,
      "èµ¶": 1374,
      "åħŃ": 1375,
      "æĤĦ": 1376,
      "çļĦèį": 1377,
      "åĿļ": 1378,
      "æİĴ": 1379,
      "ç±³": 1380,
      "åı·": 1381,
      "çĭĤ": 1382,
      "çļĦåľ°æĸ¹": 1383,
      "è½®": 1384,
      "ä¸įåĪ°": 1385,
      "ä½Ļ": 1386,
      "å¼ĥ": 1387,
      "é¢ĺ": 1388,
      "åºĦ": 1389,
      "ä»¶": 1390,
      "èĦ±": 1391,
      "ç§ĺ": 1392,
      "æ°¸è¿ľ": 1393,
      "å¹»": 1394,
      "ç«Ļåľ¨": 1395,
      "æŃ»äº¡": 1396,
      "èĶ": 1397,
      "å®¢": 1398,
      "å½©": 1399,
      "åŁĭ": 1400,
      "çľł": 1401,
      "æĹģ": 1402,
      "çļĦæĢ": 1403,
      "åĩĢ": 1404,
      "éģį": 1405,
      "éĤ£éĩĮ": 1406,
      "èĭį": 1407,
      "è§Ĥ": 1408,
      "æ³¨": 1409,
      "åģĩ": 1410,
      "çģŃ": 1411,
      "æĹĭ": 1412,
      "çļĦæ¢¦": 1413,
      "çĽĸ": 1414,
      "éĽĨ": 1415,
      "æĸ¯": 1416,
      "ä¸įåĨį": 1417,
      "çļĦæ¯": 1418,
      "åĩ»": 1419,
      "æĿĢ": 1420,
      "åħ»": 1421,
      "æİ¨": 1422,
      "èĨĢ": 1423,
      "äººä»¬": 1424,
      "çŁŃ": 1425,
      "ä»Ĭå¤©": 1426,
      "éļĶ": 1427,
      "ç®Ĺ": 1428,
      "çļĦçĽ": 1429,
      "éŀ": 1430,
      "çĶļ": 1431,
      "çĴ": 1432,
      "å¿½": 1433,
      "ä¸ºäºĨ": 1434,
      "çŃīå¾ħ": 1435,
      "çŁ³å¤´": 1436,
      "æĢ»æĺ¯": 1437,
      "çļĦæŀ": 1438,
      "æŀ¯": 1439,
      "æķĻ": 1440,
      "»åŃĲ": 1441,
      "è£Ĥ": 1442,
      "ä¸Ģåľº": 1443,
      "çĽĽ": 1444,
      "æ½®": 1445,
      "å´": 1446,
      "åģ¶": 1447,
      "åħ·": 1448,
      "ä¸ºä»Ģä¹Ī": 1449,
      "æĿ¿": 1450,
      "å±ŀ": 1451,
      "åľĨ": 1452,
      "æĬĺ": 1453,
      "ä¸Ģèµ·": 1454,
      "çĪ¬": 1455,
      "æł¼": 1456,
      "çļĦçĻ": 1457,
      "åİĭ": 1458,
      "çļĦçĪ±": 1459,
      "çļĦé»ĳ": 1460,
      "åħĭ": 1461,
      "æĺ¨": 1462,
      "å¼ķ": 1463,
      "é½": 1464,
      "çĥĤ": 1465,
      "å¥ĩ": 1466,
      "èĪ¹": 1467,
      "çº·": 1468,
      "ç¬Ķ": 1469,
      "åŁİå¸Ĥ": 1470,
      "çļĦå¯": 1471,
      "ç¾Ĭ": 1472,
      "æ»ļ": 1473,
      "åŃĲéĩĮ": 1474,
      "æľĪåħī": 1475,
      "èĮ«": 1476,
      "ç¨ĭ": 1477,
      "ä¸ĬçļĦ": 1478,
      "å¹¿": 1479,
      "çĭĹ": 1480,
      "éĿł": 1481,
      "æĭ¿": 1482,
      "ç¯": 1483,
      "æĻĥ": 1484,
      "çļĦç¬": 1485,
      "åĢ¾": 1486,
      "æ²īé»ĺ": 1487,
      "æ±Ĥ": 1488,
      "åĪº": 1489,
      "åłĨ": 1490,
      "ä¼Ĺ": 1491,
      "å£ģ": 1492,
      "éĴ±": 1493,
      "è¿Ļä¹Ī": 1494,
      "ä»¤": 1495,
      "æĢİä¹Ī": 1496,
      "å¼¯": 1497,
      "ä¸¾": 1498,
      "æĶ¯": 1499,
      "è¿ĺåľ¨": 1500,
      "å¼Ĥ": 1501,
      "çļĦéĹ": 1502,
      "æĪĳè¯´": 1503,
      "åŃĺåľ¨": 1504,
      "å¿§": 1505,
      "åĲįåŃĹ": 1506,
      "æĬ½": 1507,
      "é¢Ĩ": 1508,
      "è½¯": 1509,
      "åĻ¨": 1510,
      "åľ¨ä½ł": 1511,
      "å¸Ŀ": 1512,
      "ä¸¤ä¸ª": 1513,
      "éĢŁ": 1514,
      "å¤«": 1515,
      "ç«¯": 1516,
      "ç»§ç»Ń": 1517,
      "æĽ¾ç»ı": 1518,
      "æĿ¥äºĨ": 1519,
      "æ´ŀ": 1520,
      "ãĢĬ": 1521,
      "ãĢĭ": 1522,
      "å¸Ī": 1523,
      "çĿĢä¸Ģ": 1524,
      "æľĭ": 1525,
      "è´¨": 1526,
      "ä¿®": 1527,
      "æīĵå¼Ģ": 1528,
      "ä¸Ģå¤©": 1529,
      "èĸĦ": 1530,
      "çļĦç¥": 1531,
      "ç»ķ": 1532,
      "å°¾": 1533,
      "åħħ": 1534,
      "é¬": 1535,
      "åıĳçİ°": 1536,
      "æŃ£åľ¨": 1537,
      "åĳĢ": 1538,
      "æĥ³èµ·": 1539,
      "çĶ·äºº": 1540,
      "çļĦçľ¼çĿĽ": 1541,
      "ãĢĤâĢĿ": 1542,
      "ç«Ł": 1543,
      "èŀ": 1544,
      "å¼±": 1545,
      "å¢ĥ": 1546,
      "æĺĵ": 1547,
      "åĩĨ": 1548,
      "çĽĺ": 1549,
      "çķĻä¸ĭ": 1550,
      "éĨī": 1551,
      "éĢĢ": 1552,
      "èĻ«": 1553,
      "éº»": 1554,
      "åĨ²": 1555,
      "è®¸å¤ļ": 1556,
      "è¯ģ": 1557,
      "æ¶Į": 1558,
      "¿Ģ": 1559,
      "å¼Ł": 1560,
      "ä»¥åıĬ": 1561,
      "åŃĶ": 1562,
      "å¼¹": 1563,
      "çļĦçĻ½": 1564,
      "æ²¹": 1565,
      "ä¸įçŁ¥": 1566,
      "é»ĳå¤ľ": 1567,
      "éģ¥": 1568,
      "çĶļèĩ³": 1569,
      "ä¹°": 1570,
      "æĪĳè¦ģ": 1571,
      "æĿ¨": 1572,
      "å¿į": 1573,
      "ç¦»å¼Ģ": 1574,
      "çļĦç©": 1575,
      "çļĦåĬ": 1576,
      "ç§ĭå¤©": 1577,
      "å±ķ": 1578,
      "æĢ¥": 1579,
      "çļĦè·¯": 1580,
      "éĻį": 1581,
      "æľĭåıĭ": 1582,
      "æ´ģ": 1583,
      "çļĦé¢": 1584,
      "åį°": 1585,
      "ç©¿è¿ĩ": 1586,
      "äºī": 1587,
      "è°ĥ": 1588,
      "çĥĪ": 1589,
      "èĦĳ": 1590,
      "åħ¶å®ŀ": 1591,
      "æģĭ": 1592,
      "éĤ£æĺ¯": 1593,
      "ä¸ľè¥¿": 1594,
      "é»Ħæĺı": 1595,
      "åĶ¯": 1596,
      "åİ»äºĨ": 1597,
      "éĢĥ": 1598,
      "ç»Īäºİ": 1599,
      "çļĦçİ": 1600,
      "å¦Ĥä½ķ": 1601,
      "ç²Ĵ": 1602,
      "çī¹": 1603,
      "çºª": 1604,
      "å·¦": 1605,
      "çĿĢæĪĳ": 1606,
      "æĺ¾": 1607,
      "èĿ¶": 1608,
      "æ¡ĥ": 1609,
      "èºº": 1610,
      "èĩ´": 1611,
      "è¿ľæĸ¹": 1612,
      "æľīæĹ¶": 1613,
      "åļ": 1614,
      "çģµéŃĤ": 1615,
      "ç³»": 1616,
      "ä½łæĺ¯": 1617,
      "åĨ¬å¤©": 1618,
      "çļĦèº«ä½ĵ": 1619,
      "å®¤": 1620,
      "æĪĲäºĨ": 1621,
      "å«": 1622,
      "éĹŃ": 1623,
      "æ®ĭ": 1624,
      "å¾·": 1625,
      "çļĦå±±": 1626,
      "åĥıä¸Ģ": 1627,
      "å»º": 1628,
      "åľ°ä¸Ĭ": 1629,
      "æ¶Īå¤±": 1630,
      "æĳĨ": 1631,
      "åı³": 1632,
      "æ®µ": 1633,
      "æ»ĳ": 1634,
      "å½¼": 1635,
      "åĽŀåĪ°": 1636,
      "æ¡¥": 1637,
      "å·¨": 1638,
      "çļĦè¯Ĺ": 1639,
      "æĶ¹": 1640,
      "çļĦæłĳ": 1641,
      "å¤ļå¹´": 1642,
      "çļĦè½": 1643,
      "åī©": 1644,
      "ç¡®": 1645,
      "çĴĥ": 1646,
      "æ¨¡": 1647,
      "ä¹Łè®¸": 1648,
      "ç´«": 1649,
      "ç½®": 1650,
      "æŃ¤åĪ»": 1651,
      "é¥Ń": 1652,
      "æ´ĭ": 1653,
      "æ²¿": 1654,
      "çĪ±æĥħ": 1655,
      "çĸĳ": 1656,
      "ç«¥": 1657,
      "åį·": 1658,
      "éĥģ": 1659,
      "åĲĲ": 1660,
      "ä¸įåı¯": 1661,
      "ä»°": 1662,
      "æ¼Ĥ": 1663,
      "åĪĴ": 1664,
      "å£«": 1665,
      "äºĨæĪĳ": 1666,
      "åĳĬè¯ī": 1667,
      "æŀ¶": 1668,
      "åĩĿ": 1669,
      "åĶ¤": 1670,
      "é¡º": 1671,
      "æĿĤ": 1672,
      "æŀģ": 1673,
      "åģ·": 1674,
      "æĹħ": 1675,
      "æĬ¥": 1676,
      "æĪı": 1677,
      "ħèĨĢ": 1678,
      "çº¯": 1679,
      "çĶľ": 1680,
      "åŀĤ": 1681,
      "ç»ĻæĪĳ": 1682,
      "çļĦç©º": 1683,
      "ç¿Ķ": 1684,
      "¹ģ": 1685,
      "èĮ¶": 1686,
      "èħ¾": 1687,
      "ç´¢": 1688,
      "±åŃĲ": 1689,
      "éĵ¶": 1690,
      "å¨ĺ": 1691,
      "å¿Ĺ": 1692,
      "çļĦé¸": 1693,
      "çļĦèĦļ": 1694,
      "éĽ¶": 1695,
      "ç£¨": 1696,
      "å¿ħé¡»": 1697,
      "ä¸įæĸŃ": 1698,
      "é¬¼": 1699,
      "çļĦçī": 1700,
      "æĿŁ": 1701,
      "çİī": 1702,
      "éĢī": 1703,
      "çıł": 1704,
      "éĢĲ": 1705,
      "çīĻ": 1706,
      "å¥¹ä»¬": 1707,
      "çĽ¸ä¿¡": 1708,
      "»çĴĥ": 1709,
      "ä¼ı": 1710,
      "çļĦçĥ": 1711,
      "é¡¾": 1712,
      "åĮº": 1713,
      "æķ´ä¸ª": 1714,
      "æ¾": 1715,
      "å°ģ": 1716,
      "åľ£": 1717,
      "å£°éŁ³": 1718,
      "çĸ¼": 1719,
      "èĦı": 1720,
      "è§¦": 1721,
      "æĵ¦": 1722,
      "æİĮ": 1723,
      "ä¹ĭåīį": 1724,
      "è½»è½»": 1725,
      "çº¦": 1726,
      "å¹½": 1727,
      "ç®Ģ": 1728,
      "äººç±»": 1729,
      "æģ¶": 1730,
      "ä¾ĿçĦ¶": 1731,
      "ç¥ĸ": 1732,
      "å®ģ": 1733,
      "æķ²": 1734,
      "è·¯ä¸Ĭ": 1735,
      "è¯ķ": 1736,
      "ä¸ĢçĶŁ": 1737,
      "èī²çļĦ": 1738,
      "ç¡¬": 1739,
      "ä¸Ģåº§": 1740,
      "çļĦéķ": 1741,
      "æľīäºĽ": 1742,
      "¤Ĳ": 1743,
      "çļĦèĢģ": 1744,
      "æħ¢æħ¢": 1745,
      "éĢĶ": 1746,
      "æĪĳå°±": 1747,
      "æ¿Ģ": 1748,
      "è¯Ńè¨Ģ": 1749,
      "çĽ´åĪ°": 1750,
      "é¾Ļ": 1751,
      "å¸Į": 1752,
      "æĹłæķ°": 1753,
      "çĦ°": 1754,
      "ä¸Ģå®ļ": 1755,
      "çļĦçģ«": 1756,
      "åħ°": 1757,
      "èº²": 1758,
      "æĩĤ": 1759,
      "çļĦå·": 1760,
      "å¸¦çĿĢ": 1761,
      "æĤ¬": 1762,
      "åĵģ": 1763,
      "ä¸Ľ": 1764,
      "è¢ĭ": 1765,
      "çļĦæµ·": 1766,
      "è¿İ": 1767,
      "ç¤º": 1768,
      "åĨ³": 1769,
      "å¤§æµ·": 1770,
      "çļĦå¼": 1771,
      "ä¸Ģé¢Ĺ": 1772,
      "å®ĩ": 1773,
      "ä¸ĢåĿĹ": 1774,
      "åħ´": 1775,
      "å®īéĿĻ": 1776,
      "åĽŀæĿ¥": 1777,
      "å¦¹": 1778,
      "éĻ·": 1779,
      "æ¡Į": 1780,
      "äººéĹ´": 1781,
      "éĥ½åľ¨": 1782,
      "ĮçĶŁ": 1783,
      "æķ¢": 1784,
      "å®³": 1785,
      "æľ¯": 1786,
      "è®°å¿Ĩ": 1787,
      "çļĦåº": 1788,
      "åıªèĥ½": 1789,
      "æĺŁæĺŁ": 1790,
      "æī¬": 1791,
      "å¯»æī¾": 1792,
      "ä¸¥": 1793,
      "åľĪ": 1794,
      "èµ°è¿ĩ": 1795,
      "ç§»": 1796,
      "æĿ¥èĩª": 1797,
      "åĪĹ": 1798,
      "çļĦè§": 1799,
      "èĬĴ": 1800,
      "å¹¸ç¦ı": 1801,
      "çļĦåİ": 1802,
      "æĭį": 1803,
      "ä¸įè¿ĩ": 1804,
      "ç½ĳ": 1805,
      "æĥ³è±¡": 1806,
      "éĨĴæĿ¥": 1807,
      "çİ©": 1808,
      "çº¹": 1809,
      "ç§¯": 1810,
      "çľĭçĿĢ": 1811,
      "ä»»ä½ķ": 1812,
      "ä¸Ģå¼ł": 1813,
      "ä¸Ģæľµ": 1814,
      "æ¼Ķ": 1815,
      "æı¡": 1816,
      "å²Ľ": 1817,
      "é¢¤": 1818,
      "çļĦæĥħ": 1819,
      "èµ°äºĨ": 1820,
      "èº«ä¸Ĭ": 1821,
      "åĬ¿": 1822,
      "åĵ¦": 1823,
      "åı¹": 1824,
      "æĪĳä¹Ł": 1825,
      "èį¯": 1826,
      "åĳµ": 1827,
      "çĮ«": 1828,
      "åĵĢ": 1829,
      "ä¸įçŁ¥éģĵ": 1830,
      "èĭ±": 1831,
      "å¤ĩ": 1832,
      "ç¹ģ": 1833,
      "ç»ıè¿ĩ": 1834,
      "æģĲ": 1835,
      "å¯ŀ": 1836,
      "ä½łè¯´": 1837,
      "çļĦå¤©": 1838,
      "çļĦçģµ": 1839,
      "çļĦå§": 1840,
      "çļĦåĩ": 1841,
      "äºĴ": 1842,
      "æĮ¤": 1843,
      "æīĢä»¥": 1844,
      "æ¸´": 1845,
      "çļĦèĪ": 1846,
      "çŀ¬": 1847,
      "å°Ħ": 1848,
      "é¸¡": 1849,
      "éº¦": 1850,
      "å¿Ļ": 1851,
      "çĺ¦": 1852,
      "æĢģ": 1853,
      "åĽ¢": 1854,
      "çļĦæĸ¹": 1855,
      "æ¶²": 1856,
      "ç¾İä¸½": 1857,
      "é£İåĲ¹": 1858,
      "åĸĦ": 1859,
      "ä½łåľ¨": 1860,
      "å»¶": 1861,
      "ç½Ĺ": 1862,
      "ç¼Ŀ": 1863,
      "çļĦå½±åŃĲ": 1864,
      "å¦»åŃĲ": 1865,
      "èĢĮæĪĳ": 1866,
      "ä¸ŃçļĦ": 1867,
      "éĺĶ": 1868,
      "çªĹå¤ĸ": 1869,
      "çĵ¶": 1870,
      "æ±ł": 1871,
      "ç²ī": 1872,
      "æ´»çĿĢ": 1873,
      "æĬµ": 1874,
      "éĻĲ": 1875,
      "éĽĢ": 1876,
      "çİ¯": 1877,
      "çļĦè®": 1878,
      "åĨħå¿ĥ": 1879,
      "ä¸ĭåįĪ": 1880,
      "çŃĶ": 1881,
      "åįĸ": 1882,
      "éĤ£æł·": 1883,
      "æĬĸ": 1884,
      "åĨĽ": 1885,
      "çļĦè¡Ģ": 1886,
      "éĽ·": 1887,
      "ä¸Ģå£°": 1888,
      "è¿Ľåħ¥": 1889,
      "ä¸ĢæĬĬ": 1890,
      "å¤ıå¤©": 1891,
      "çļĦçĹ": 1892,
      "çĲ´": 1893,
      "åĪĻ": 1894,
      "å¤ķ": 1895,
      "èħ°": 1896,
      "æ¦": 1897,
      "åİĨåı²": 1898,
      "æĿ¥è¶Ĭ": 1899,
      "éĢĿ": 1900,
      "çļĦéĵ": 1901,
      "èĥ¡": 1902,
      "æĬļ": 1903,
      "åľŁåľ°": 1904,
      "å¥¶": 1905,
      "åĶĩ": 1906,
      "åĵªéĩĮ": 1907,
      "ä¸įä½ı": 1908,
      "è¶ĬæĿ¥è¶Ĭ": 1909,
      "æģĴ": 1910,
      "çļĦèĩ": 1911,
      "é¼ĵ": 1912,
      "ä¸įåĲĮ": 1913,
      "èİ«": 1914,
      "åĲ¬è§ģ": 1915,
      "äº§": 1916,
      "å¹¶ä¸į": 1917,
      "æ¢ħ": 1918,
      "çĬ¹": 1919,
      "çļĦæĻ": 1920,
      "æµħ": 1921,
      "çļĦå¾": 1922,
      "æīİ": 1923,
      "æ±ī": 1924,
      "åĲ»": 1925,
      "åĩºäºĨ": 1926,
      "èĩªçĶ±": 1927,
      "åī²": 1928,
      "æĴŀ": 1929,
      "çļĦæ±": 1930,
      "é¢ľ": 1931,
      "åĮĨ": 1932,
      "´èĿ¶": 1933,
      "ç¼©": 1934,
      "ä¸įåĩº": 1935,
      "å¦ĤåĲĮ": 1936,
      "è¿ĩæĿ¥": 1937,
      "é¥®": 1938,
      "ä»½": 1939,
      "æĹ¶åħī": 1940,
      "åĽŀå®¶": 1941,
      "åı¶åŃĲ": 1942,
      "è°¢": 1943,
      "åı¦ä¸Ģä¸ª": 1944,
      "åĲ¬åĪ°": 1945,
      "ä¸Ģä¸ĭ": 1946,
      "éĺŁ": 1947,
      "ç©ºæ°Ķ": 1948,
      "æĬķ": 1949,
      "ç¤¼": 1950,
      "åľ¨è¿Ļ": 1951,
      "æ³¡": 1952,
      "ç»´": 1953,
      "èģļ": 1954,
      "åŃ£èĬĤ": 1955,
      "ä¼´": 1956,
      "æ»¡äºĨ": 1957,
      "åįģå¹´": 1958,
      "çļĦåĸ": 1959,
      "éĻĮçĶŁ": 1960,
      "çļĦç¾İ": 1961,
      "ä¸ļ": 1962,
      "è¿Ł": 1963,
      "æģ¨": 1964,
      "åºĶè¯¥": 1965,
      "çļĦèĭ": 1966,
      "æĬ¤": 1967,
      "èĥ¸": 1968,
      "è¦Ĩ": 1969,
      "èĴĻ": 1970,
      "çļĦåĵ": 1971,
      "æĥ¯": 1972,
      "éĹ»": 1973,
      "å®½": 1974,
      "æĸľ": 1975,
      "ç³Ĭ": 1976,
      "åī§": 1977,
      "åį¡": 1978,
      "èĢĢ": 1979,
      "éĴĪ": 1980,
      "åĲ«": 1981,
      "æŁĵ": 1982,
      "å°ļ": 1983,
      "è´¥": 1984,
      "è´´": 1985,
      "æĸĳ": 1986,
      "ä¹³": 1987,
      "çļĦéĽ¨": 1988,
      "æĬĬæĪĳ": 1989,
      "è¯´è¯Ŀ": 1990,
      "æĦŁåĪ°": 1991,
      "çĹķ": 1992,
      "éŀĭ": 1993,
      "äºļ": 1994,
      "ä¼Ł": 1995,
      "çļĦæ·": 1996,
      "æ¼ł": 1997,
      "æ¯ıå¤©": 1998,
      "åħ±": 1999,
      "æİ¢": 2000,
      "çİ»çĴĥ": 2001,
      "æī¿": 2002,
      "ä¸ŃåĽ½": 2003,
      "æİ©": 2004,
      "çļĦéĴ": 2005,
      "æĪ·": 2006,
      "çļĦæĹ¥åŃĲ": 2007,
      "çļĦéª": 2008,
      "ä¸ĭåİ»": 2009,
      "åºĹ": 2010,
      "åİļ": 2011,
      "çļĦæ°Ķ": 2012,
      "åĳ¼åĲ¸": 2013,
      "æ¤į": 2014,
      "è¸ı": 2015,
      "æĺ¯åĲ¦": 2016,
      "çļĦéģ": 2017,
      "åıĳåĩº": 2018,
      "çļĦæķħ": 2019,
      "èħ¿": 2020,
      "è®¡": 2021,
      "æ··": 2022,
      "åĿ¡": 2023,
      "æľªæĿ¥": 2024,
      "èľľ": 2025,
      "è®²": 2026,
      "ä»¥ä¸º": 2027,
      "åĿı": 2028,
      "åºŁ": 2029,
      "éĢĤ": 2030,
      "è£¸": 2031,
      "ç¼ĺ": 2032,
      "ä¸¢": 2033,
      "å§Ĳ": 2034,
      "æĽ´å¤ļ": 2035,
      "çļĦæ²³": 2036,
      "éĻħ": 2037,
      "æĮ¥": 2038,
      "ä¸Ģæ£µ": 2039,
      "åħ½": 2040,
      "æ¥ļ": 2041,
      "å²ģæľĪ": 2042,
      "å¾Īå¤ļ": 2043,
      "éĽĦ": 2044,
      "æĦŁè§ī": 2045,
      "æĢĴ": 2046,
      "çĳ°": 2047,
      "çıŃ": 2048,
      "å¥½åĥı": 2049,
      "èĤ¤": 2050,
      "æŀĦ": 2051,
      "æ¸©æļĸ": 2052,
      "æĪĳçŁ¥éģĵ": 2053,
      "æĽ¿": 2054,
      "æĹ©æĻ¨": 2055,
      "æĬĵ": 2056,
      "å¹´è½»": 2057,
      "ä¸Ĭå¸Ŀ": 2058,
      "èĢĥ": 2059,
      "é¤Ĳ": 2060,
      "éĵº": 2061,
      "é¦Ĩ": 2062,
      "å¸ĮæľĽ": 2063,
      "è¿Ļä¸Ģ": 2064,
      "è§īå¾Ĺ": 2065,
      "å¹ķ": 2066,
      "æĸĻ": 2067,
      "è¶ħ": 2068,
      "ä¸ªäºº": 2069,
      "çĬ¶": 2070,
      "æĦģ": 2071,
      "èĲ½åľ¨": 2072,
      "çĸ¯": 2073,
      "æĢİæł·": 2074,
      "çļĦéĿ¢": 2075,
      "æ³£": 2076,
      "å¼Ħ": 2077,
      "èĻ½": 2078,
      "æĹ©å·²": 2079,
      "èŀį": 2080,
      "å¡Ķ": 2081,
      "ä¸įåģľ": 2082,
      "ä¸°": 2083,
      "çļĦçŁ³": 2084,
      "æ¯Ĵ": 2085,
      "ç«¹": 2086,
      "é»İ": 2087,
      "èĤ¯": 2088,
      "çļĦéĢ": 2089,
      "çĪ¸": 2090,
      "å°ıå°ı": 2091,
      "åĲŀ": 2092,
      "æ¨ª": 2093,
      "éķĩ": 2094,
      "éģ¥è¿ľ": 2095,
      "«çĳ°": 2096,
      "å¢ĵ": 2097,
      "æĹ¶ä»£": 2098,
      "ç¼º": 2099,
      "ä¼¼ä¹İ": 2100,
      "åĪ«äºº": 2101,
      "çļĦæĬ": 2102,
      "åĩĮ": 2103,
      "20": 2104,
      "æĬ¬": 2105,
      "æķĳ": 2106,
      "çļĦçģµéŃĤ": 2107,
      "åĳĺ": 2108,
      "å¥ı": 2109,
      "æ·±å¤Ħ": 2110,
      "çļĦèįī": 2111,
      "åħĥ": 2112,
      "åĨľ": 2113,
      "èĽĭ": 2114,
      "åĮ»": 2115,
      "å®Ŀ": 2116,
      "éĩĮéĿ¢": 2117,
      "æĪ´": 2118,
      "åħĦ": 2119,
      "åĲĽ": 2120,
      "å®«": 2121,
      "æµĵ": 2122,
      "æĢª": 2123,
      "éĿ¢å¯¹": 2124,
      "ä¸Ģéĺµ": 2125,
      "æĹı": 2126,
      "äº¬": 2127,
      "çļĦåŁ": 2128,
      "åħµ": 2129,
      "æľīäºĨ": 2130,
      "çļĦå¤´": 2131,
      "å½±åŃĲ": 2132,
      "é¢Ħ": 2133,
      "ç¼ł": 2134,
      "è·ĥ": 2135,
      "éĩįæĸ°": 2136,
      "åĢ¦": 2137,
      "ä¸Ģç¾¤": 2138,
      "çļĦçª": 2139,
      "æĥ§": 2140,
      "ä¸įäºĨ": 2141,
      "æīĩ": 2142,
      "éªĳ": 2143,
      "éģ¿": 2144,
      "åĪĺ": 2145,
      "ç¢°": 2146,
      "èī¯": 2147,
      "çļĦéĿĴ": 2148,
      "åĽº": 2149,
      "åĵ¥": 2150,
      "ä¸Ģæł¹": 2151,
      "åıĺå¾Ĺ": 2152,
      "çĪ·": 2153,
      "äºİæĺ¯": 2154,
      "åĢŁ": 2155,
      "æŁ³": 2156,
      "ç»µ": 2157,
      "è®°å¾Ĺ": 2158,
      "å½¼æŃ¤": 2159,
      "çļĦå¤©ç©º": 2160,
      "çļĦå¸": 2161,
      "èĭı": 2162,
      "å±ŀäºİ": 2163,
      "éĻ¤äºĨ": 2164,
      "ç»Ł": 2165,
      "è´µ": 2166,
      "å½ĵæĪĳ": 2167,
      "èħĲ": 2168,
      "éĻ©": 2169,
      "èİ·": 2170,
      "çļĦæŃĮ": 2171,
      "åĳĨ": 2172,
      "çĸ²": 2173,
      "æĿĳåºĦ": 2174,
      "çļĦå¥³äºº": 2175,
      "æĹ·": 2176,
      "èŃ": 2177,
      "ç§°": 2178,
      "è±Ĩ": 2179,
      "æĸĹ": 2180,
      "çĻ½èī²": 2181,
      "è¯ĹæŃĮ": 2182,
      "é½¿": 2183,
      "æ²³æµģ": 2184,
      "çļĦæĤ": 2185,
      "çļĦåĺ": 2186,
      "å±Ģ": 2187,
      "·åŃĲ": 2188,
      "çļĦä¸ĸçķĮ": 2189,
      "èµ¤": 2190,
      "æĪĳçľĭè§ģ": 2191,
      "æĭ©": 2192,
      "èĩªçĦ¶": 2193,
      "å·Ŀ": 2194,
      "æĨ": 2195,
      "èķ": 2196,
      "åĲİæĿ¥": 2197,
      "è¿ľå¤Ħ": 2198,
      "æ²»": 2199,
      "æŀļ": 2200,
      "å¤ľéĩĮ": 2201,
      "æ¤ħ": 2202,
      "ä¸įåľ¨": 2203,
      "æĿ¥åĪ°": 2204,
      "ä¸Ģé¦ĸ": 2205,
      "ä¹Łæ²¡æľī": 2206,
      "é£İä¸Ń": 2207,
      "æĪ¿éĹ´": 2208,
      "å¿ĺè®°": 2209,
      "çĶŁéķ¿": 2210,
      "æŃ»åİ»": 2211,
      "åĩºçİ°": 2212,
      "ä¸ģ": 2213,
      "çĩĥçĥ§": 2214,
      "ä¼Ĭ": 2215,
      "é»ĳèī²": 2216,
      "ç´¯": 2217,
      "åĩłä¸ª": 2218,
      "çļĦéĽª": 2219,
      "åıĳçĶŁ": 2220,
      "éĩĬ": 2221,
      "ä½Ĩæĺ¯": 2222,
      "çļĦéĺ³": 2223,
      "æķħä¹¡": 2224,
      "åĬŀ": 2225,
      "èĤ©": 2226,
      "è¿°": 2227,
      "ç»Ļä½ł": 2228,
      "æĺ¯ä¸Ģä¸ª": 2229,
      "æ³ī": 2230,
      "æļĤ": 2231,
      "åĿł": 2232,
      "åĶĲ": 2233,
      "èĻİ": 2234,
      "ç²Ĺ": 2235,
      "çĪ±çļĦ": 2236,
      "ç¦ģ": 2237,
      "æĤł": 2238,
      "å·¨å¤§": 2239,
      "æ¸¡": 2240,
      "æĹłäºº": 2241,
      "æĭĴ": 2242,
      "çļĦè¯Ŀ": 2243,
      "çļĦæĹ¶éĹ´": 2244,
      "å¯Ĥå¯ŀ": 2245,
      "æīĺ": 2246,
      "å¦Ĥä»Ĭ": 2247,
      "çľĭä¸įè§ģ": 2248,
      "æĤ¨": 2249,
      "é¼ł": 2250,
      "å²©": 2251,
      "éŁ": 2252,
      "çļĦæĦı": 2253,
      "åĴ¬": 2254,
      "èĿ´èĿ¶": 2255,
      "æłĩ": 2256,
      "çīµ": 2257,
      "æĪ¿åŃĲ": 2258,
      "å¿ĥéĩĮ": 2259,
      "æ£®": 2260,
      "å¦ĩ": 2261,
      "è¿Ķ": 2262,
      "æīĳ": 2263,
      "æĴĴ": 2264,
      "çĶµè¯Ŀ": 2265,
      "æļ®": 2266,
      "çļĦåŃ©åŃĲ": 2267,
      "æ§": 2268,
      "çļĦå¢": 2269,
      "çļĦçĭ": 2270,
      "åıł": 2271,
      "èļģ": 2272,
      "äºķ": 2273,
      "æĹĹ": 2274,
      "æĬ¹": 2275,
      "ç¾ŀ": 2276,
      "å¾ĭ": 2277,
      "ä¼ĳ": 2278,
      "çĵ¦": 2279,
      "æºĲ": 2280,
      "å¯Į": 2281,
      "çļĦé«ĺ": 2282,
      "åĬ³": 2283,
      "çļĦç¥ŀ": 2284,
      "çļĦåī": 2285,
      "æĤī": 2286,
      "èµŀ": 2287,
      "ç©¶": 2288,
      "å¥³åĦ¿": 2289,
      "çļĦæ¬": 2290,
      "åľ¨ä¸Ģèµ·": 2291,
      "ä¸Ģè¾¹": 2292,
      "åŃĻ": 2293,
      "åĴĮæĪĳ": 2294,
      "ä¸ĬäºĨ": 2295,
      "æŀª": 2296,
      "å®ĺ": 2297,
      "å°±ä¼ļ": 2298,
      "ç¿¼": 2299,
      "åįĥå¹´": 2300,
      "åĶ¯ä¸Ģ": 2301,
      "ä»ĸçļĦ": 2302,
      "åĲŁ": 2303,
      "æ¸Ĳæ¸Ĳ": 2304,
      "æ¯«": 2305,
      "æĪĳæĬĬ": 2306,
      "æľ«": 2307,
      "çļĦèĩª": 2308,
      "è¸©": 2309,
      "çĽı": 2310,
      "æĪĸè®¸": 2311,
      "é¡¿": 2312,
      "åģ¶å°Ķ": 2313,
      "çļĦç²": 2314,
      "è®¾": 2315,
      "ä¹ĭå¤ĸ": 2316,
      "åĢ¼": 2317,
      "éĶģ": 2318,
      "çļĦèĥĮ": 2319,
      "æľĹ": 2320,
      "èĢ³æľµ": 2321,
      "åĮ¹": 2322,
      "çļĦé¸Ł": 2323,
      "åĽ°": 2324,
      "å³°": 2325,
      "è¡Įèµ°": 2326,
      "çļĦéķ¿": 2327,
      "æīįèĥ½": 2328,
      "ç©·": 2329,
      "éģ®": 2330,
      "ä¹łæĥ¯": 2331,
      "æĭħ": 2332,
      "ä¹ĭä¸Ń": 2333,
      "æĺİå¤©": 2334,
      "çĿĢä½ł": 2335,
      "èĤ²": 2336,
      "ç¬¼": 2337,
      "è½½": 2338,
      "æĥ³åĪ°": 2339,
      "éĩĮçļĦ": 2340,
      "æĭĽ": 2341,
      "åī©ä¸ĭ": 2342,
      "é¡µ": 2343,
      "å¦Īå¦Ī": 2344,
      "èİ²": 2345,
      "æĥĳ": 2346,
      "ä»·": 2347,
      "æĺ¯ä½ł": 2348,
      "åį³ä½¿": 2349,
      "æ±Ĺ": 2350,
      "æ»©": 2351,
      "å¤±åİ»": 2352,
      "æĿľ": 2353,
      "æ³Ĭ": 2354,
      "çļĦçģ¯": 2355,
      "æĹłå£°": 2356,
      "åīĳ": 2357,
      "ç´ł": 2358,
      "æĴķ": 2359,
      "ç»ĩ": 2360,
      "æī¾åĪ°": 2361,
      "åıªè¦ģ": 2362,
      "èĤ¡": 2363,
      "è£¹": 2364,
      "ç°": 2365,
      "éĹ²": 2366,
      "æ³¥åľŁ": 2367,
      "å¼ĢäºĨ": 2368,
      "ï¼ģâĢĿ": 2369,
      "çļĦåŁİ": 2370,
      "æºª": 2371,
      "èĳ¬": 2372,
      "çļĦé©": 2373,
      "çĶ²": 2374,
      "åĳ½è¿Ĳ": 2375,
      "è´¹": 2376,
      "åľ¨æ°´": 2377,
      "ä»¥åĲİ": 2378,
      "æį®": 2379,
      "ä¾§": 2380,
      "æ¢¦ä¸Ń": 2381,
      "çļĦæ·±": 2382,
      "ç¾½": 2383,
      "é¸¦": 2384,
      "å¯ĤéĿĻ": 2385,
      "åĨĴ": 2386,
      "çļĦçº¢": 2387,
      "éĤ£ä¸Ģ": 2388,
      "çļĦé»Ħ": 2389,
      "å®Ļ": 2390,
      "è´Ł": 2391,
      "æĦĪ": 2392,
      "èĽĩ": 2393,
      "æĪĳè¿ĺ": 2394,
      "å¢¨": 2395,
      "æĺ¯ä¸Ģç§į": 2396,
      "è¯¯": 2397,
      "çļĦçĸ": 2398,
      "æĪĳä»İ": 2399,
      "å¿«ä¹Ĳ": 2400,
      "çĵ£": 2401,
      "çļĦæļ": 2402,
      "å·®": 2403,
      "ç¿ħèĨĢ": 2404,
      "è¿ĩäºĨ": 2405,
      "èĦī": 2406,
      "çļĦåĳ¼": 2407,
      "åħ¸": 2408,
      "çº³": 2409,
      "çģ«è½¦": 2410,
      "èī³": 2411,
      "æ¶Ĥ": 2412,
      "åħ¨éĥ¨": 2413,
      "å£³": 2414,
      "çļĦè¾": 2415,
      "æŃ¤æĹ¶": 2416,
      "10": 2417,
      "æ¡ĳ": 2418,
      "é¥¿": 2419,
      "äººçĶŁ": 2420,
      "å£®": 2421,
      "åħ³äºİ": 2422,
      "åĲ¯": 2423,
      "çļĦèħ": 2424,
      "èĩĤ": 2425,
      "å·ŀ": 2426,
      "éĤ£æĹ¶": 2427,
      "å©Ĩ": 2428,
      "æ¯ģ": 2429,
      "è¾ī": 2430,
      "å¯Ł": 2431,
      "çļĦå²": 2432,
      "å®ĩå®Ļ": 2433,
      "çļĦæĪĳ": 2434,
      "æĶ¿": 2435,
      "é¥±": 2436,
      "é£ŀç¿Ķ": 2437,
      "çļĦåĿ": 2438,
      "ç«ł": 2439,
      "åı¦ä¸Ģ": 2440,
      "æĭĶ": 2441,
      "ä»Ļ": 2442,
      "èĢĮæĿ¥": 2443,
      "æ²¡æľīäºº": 2444,
      "æĿĥ": 2445,
      "ç½ª": 2446,
      "èĪį": 2447,
      "åĵĪ": 2448,
      "çĵľ": 2449,
      "èĥ½å¤Ł": 2450,
      "ç©ºä¸Ń": 2451,
      "æ©": 2452,
      "çļĦç¿": 2453,
      "ä¸ĩçī©": 2454,
      "å®Ĺ": 2455,
      "åĨĻè¯Ĺ": 2456,
      "çŃĳ": 2457,
      "çļĦåĺ´": 2458,
      "Â·": 2459,
      "çļĦæģ": 2460,
      "å¹²åĩĢ": 2461,
      "çļĦçĲ": 2462,
      "å¥Ĺ": 2463,
      "å¡ŀ": 2464,
      "ä¸įå¾Ĺ": 2465,
      "éĽ¨æ°´": 2466,
      "äººçļĦ": 2467,
      "èĪĮ": 2468,
      "çļĦéĺ³åħī": 2469,
      "çļ±": 2470,
      "å°±åľ¨": 2471,
      "åĥıæĺ¯": 2472,
      "å°¸": 2473,
      "æ¶¦": 2474,
      "å¾®ç¬ĳ": 2475,
      "éĹ¹": 2476,
      "éĽħ": 2477,
      "è¾Ĩ": 2478,
      "æ°¸æģĴ": 2479,
      "çŀ¬éĹ´": 2480,
      "çķ¥": 2481,
      "çļĦéĻ": 2482,
      "å¤©ä¸Ĭ": 2483,
      "éĢīæĭ©": 2484,
      "æĤĦæĤĦ": 2485,
      "çīĮ": 2486,
      "æŃ»äºĨ": 2487,
      "å©ļ": 2488,
      "æĬ«": 2489,
      "æĬĽ": 2490,
      "èģĬ": 2491,
      "çº¢èī²": 2492,
      "éĿĴæĺ¥": 2493,
      "æľīçĤ¹": 2494,
      "å°ĳå¥³": 2495,
      "èĩªå·±çļĦ": 2496,
      "ä¸ĬéĿ¢": 2497,
      "çļĦç«": 2498,
      "åıĮæīĭ": 2499,
      "ä¸įæ¸ħ": 2500,
      "åįł": 2501,
      "çļĦäºĳ": 2502,
      "Ŀç¦»": 2503,
      "æĺł": 2504,
      "å®¿": 2505,
      "å°±è¦ģ": 2506,
      "å®ĥçļĦ": 2507,
      "å§ĳ": 2508,
      "ä¾ĿæĹ§": 2509,
      "å¥Ķè·ĳ": 2510,
      "æª": 2511,
      "çĮĽ": 2512,
      "æĺ¯è°ģ": 2513,
      "éĿĻéĿĻ": 2514,
      "çļĦæĦŁ": 2515,
      "çļĦçªĹ": 2516,
      "æī§": 2517,
      "½åŃĲ": 2518,
      "çģ¿": 2519,
      "æŃ¦": 2520,
      "åģı": 2521,
      "æ¶©": 2522,
      "æıĴ": 2523,
      "åķ¦": 2524,
      "æħ°": 2525,
      "å¤¹": 2526,
      "çĻ»": 2527,
      "ç½©": 2528,
      "åľ°æĸ¹": 2529,
      "éģĹå¿ĺ": 2530,
      "ä½ĨæĪĳ": 2531,
      "åı¯æĺ¯": 2532,
      "èĥľ": 2533,
      "çļĦæĮ": 2534,
      "çİ«çĳ°": 2535,
      "éĥ½ä¸į": 2536,
      "åīª": 2537,
      "å¼¥": 2538,
      "æ·ĭ": 2539,
      "çļĦç¬ĳ": 2540,
      "ä¼ļåĦ¿": 2541,
      "çľŁå®ŀ": 2542,
      "é»İæĺİ": 2543,
      "å¯¼": 2544,
      "èĻ½çĦ¶": 2545,
      "å¾Ĵ": 2546,
      "èµ°è¿Ľ": 2547,
      "çĶĺ": 2548,
      "å½»": 2549,
      "åħĦå¼Ł": 2550,
      "ä¸ĸçºª": 2551,
      "éĢ¼": 2552,
      "çļĦæĢĿ": 2553,
      "æĪĳåĴĮ": 2554,
      "çļĦæŁ": 2555,
      "çĦ¶èĢĮ": 2556,
      "åĪĽ": 2557,
      "åįĩèµ·": 2558,
      "æ¡Ī": 2559,
      "èĲ½åı¶": 2560,
      "æµģæ°´": 2561,
      "éĢıæĺİ": 2562,
      "è¡¥": 2563,
      "å°ıå¿ĥ": 2564,
      "è¤": 2565,
      "å¯º": 2566,
      "è¯ŀ": 2567,
      "èīº": 2568,
      "äºĮåįģ": 2569,
      "çļĦéĹ¨": 2570,
      "æłª": 2571,
      "ç»ĥ": 2572,
      "æĮī": 2573,
      "æĤ²ä¼¤": 2574,
      "è®¤è¯Ĩ": 2575,
      "æ¯Ķå¦Ĥ": 2576,
      "æĦ¿æĦı": 2577,
      "èį£": 2578,
      "çĹĽèĭ¦": 2579,
      "çļĦæ¡": 2580,
      "ä¹ĭä¸Ĭ": 2581,
      "çºµ": 2582,
      "ä½ľä¸º": 2583,
      "ç»¿èī²": 2584,
      "ä»įçĦ¶": 2585,
      "çļĦçĽ®": 2586,
      "æ²¿çĿĢ": 2587,
      "åĵĳ": 2588,
      "èį·": 2589,
      "ç¨Ģ": 2590,
      "æ¢¯": 2591,
      "é½Ĳ": 2592,
      "æĹ¢": 2593,
      "19": 2594,
      "éĤ»": 2595,
      "èľĤ": 2596,
      "çĨŁæĤī": 2597,
      "¹æŀľ": 2598,
      "çĮ®": 2599,
      "éķľåŃĲ": 2600,
      "äº«": 2601,
      "èµ°åľ¨": 2602,
      "æ¢ģ": 2603,
      "åĩĨå¤ĩ": 2604,
      "çļĦéĺ´": 2605,
      "çĭ¬èĩª": 2606,
      "æ´Ĵ": 2607,
      "å°ĳå¹´": 2608,
      "çļĦå¤ľ": 2609,
      "æĺİäº®": 2610,
      "å¸®": 2611,
      "æłĳåı¶": 2612,
      "ç¢Ĺ": 2613,
      "çĸ¾": 2614,
      "çļĦäºĭçī©": 2615,
      "éĩĩ": 2616,
      "çļĦçĶŁæ´»": 2617,
      "è®©äºº": 2618,
      "éĴ¢": 2619,
      "ä¿Ĺ": 2620,
      "æĪĳåıª": 2621,
      "ä»Ĭå¤ľ": 2622,
      "æĬĹ": 2623,
      "æµĳ": 2624,
      "çļĦå½¢": 2625,
      "çī§": 2626,
      "çļĦéª¨": 2627,
      "å¤ªå¤ļ": 2628,
      "çļĦåĨħ": 2629,
      "åª": 2630,
      "ä¸Ģæ»´": 2631,
      "çļĦæ¶": 2632,
      "æĭ¨": 2633,
      "æĪĳä¼ļ": 2634,
      "éľľ": 2635,
      "è¯ļ": 2636,
      "æĭĸ": 2637,
      "éľĩ": 2638,
      "çļĦæŃ»": 2639,
      "èº«è¾¹": 2640,
      "æµĭ": 2641,
      "çĽĪ": 2642,
      "éŃĶ": 2643,
      "èĬ³": 2644,
      "Ĥèļģ": 2645,
      "çļĦéħ": 2646,
      "çļĦé¦": 2647,
      "èĬ½": 2648,
      "è¿ĺè¦ģ": 2649,
      "çļĦè®°": 2650,
      "æ¸´æľĽ": 2651,
      "åħ¶ä¸Ń": 2652,
      "æĭĴç»Ŀ": 2653,
      "æł¡": 2654,
      "ä½ĵåĨħ": 2655,
      "å¤ķéĺ³": 2656,
      "æĢĿæĥ³": 2657,
      "ç»³": 2658,
      "åĲĮæł·": 2659,
      "åī¥": 2660,
      "è´«": 2661,
      "åİĮ": 2662,
      "çĥģ": 2663,
      "çļĦæ³ª": 2664,
      "æ¼Ĩ": 2665,
      "æĬĬèĩªå·±": 2666,
      "èººåľ¨": 2667,
      "çļĦåĮ": 2668,
      "ä»ĸè¯´": 2669,
      "å¦Ļ": 2670,
      "æĮº": 2671,
      "èĵĿèī²": 2672,
      "æĻº": 2673,
      "è¾°": 2674,
      "éªĮ": 2675,
      "ç¤¾": 2676,
      "èŃ¦": 2677,
      "ä»¥åīį": 2678,
      "æĺİçĻ½": 2679,
      "çļĦæł·åŃĲ": 2680,
      "åĪļåĪļ": 2681,
      "æ²«": 2682,
      "çļĦè¡£": 2683,
      "éĿ¢åīį": 2684,
      "è®©ä½ł": 2685,
      "çļĦå¦": 2686,
      "å¹¶ä¸Ķ": 2687,
      "åħħæ»¡": 2688,
      "æī«": 2689,
      "å½ĵçĦ¶": 2690,
      "çļĦæ´": 2691,
      "åı¤èĢģ": 2692,
      "éĻª": 2693,
      "ç»ª": 2694,
      "éĢĴ": 2695,
      "åĩ¡": 2696,
      "çļĦç¼": 2697,
      "ä¸ĢèĪ¬": 2698,
      "å¿ĥä¸Ń": 2699,
      "å¿½çĦ¶": 2700,
      "ä¹Łä¼ļ": 2701,
      "æ¶Ľ": 2702,
      "é¹°": 2703,
      "å¼¦": 2704,
      "åĲİéĿ¢": 2705,
      "æĺ¨å¤©": 2706,
      "åľ°çĲĥ": 2707,
      "æĻĵ": 2708,
      "æ½ľ": 2709,
      "çļĦé©¬": 2710,
      "æĪĳå°Ĩ": 2711,
      "çļĦèĻ": 2712,
      "å¤´åıĳ": 2713,
      "çļĦè´": 2714,
      "çľŁçļĦ": 2715,
      "æĭľ": 2716,
      "çļĦä¸ľè¥¿": 2717,
      "çļĦæĭ": 2718,
      "è¾Ī": 2719,
      "ï¼ļâĢľ": 2720,
      "æĪĳçĪ±": 2721,
      "ä¸ŃéĹ´": 2722,
      "è¡°": 2723,
      "èĲ½ä¸ĭ": 2724,
      "ä¸²": 2725,
      "ç»ĿæľĽ": 2726,
      "èĦĨ": 2727,
      "åĨįæ¬¡": 2728,
      "éĺ¶": 2729,
      "æķħäºĭ": 2730,
      "åŁº": 2731,
      "æŃĮåĶ±": 2732,
      "æ¡ĥèĬ±": 2733,
      "æ·Į": 2734,
      "çĭ±": 2735,
      "çļĦæĤ²": 2736,
      "æĳ©": 2737,
      "çĦ¦": 2738,
      "ç¼ĵç¼ĵ": 2739,
      "æ¨¡ç³Ĭ": 2740,
      "ä¸įåĬ¨": 2741,
      "æĪĳä»¬çļĦ": 2742,
      "å§ĭç»Ī": 2743,
      "éĥ¨åĪĨ": 2744,
      "çļĦæµģ": 2745,
      "ç»Ħ": 2746,
      "ä¼Ļ": 2747,
      "æĭ¾": 2748,
      "åĦ¿åŃĲ": 2749,
      "æ¯ıä¸Ģ": 2750,
      "èĤ¥": 2751,
      "çģ«çĦ°": 2752,
      "æ¸©æŁĶ": 2753,
      "å¾ģ": 2754,
      "ä¸ĳ": 2755,
      "çļĦå¹´": 2756,
      "çļĦæ¸©": 2757,
      "æµ©": 2758,
      "ç§ģ": 2759,
      "åį«": 2760,
      "çļĦåĽŀ": 2761,
      "ä¼ŀ": 2762,
      "æĻ´": 2763,
      "å§¿": 2764,
      "ç§ĳ": 2765,
      "çļĦèĤī": 2766,
      "æĻ¶": 2767,
      "ä¿ĿæĮģ": 2768,
      "éĽķ": 2769,
      "æ¸ħæĻ¨": 2770,
      "è·Į": 2771,
      "æĻļä¸Ĭ": 2772,
      "äºĪ": 2773,
      "ä½łä¸į": 2774,
      "çĿģ": 2775,
      "åºŃ": 2776,
      "åºŀ": 2777,
      "åŁĥ": 2778,
      "ä¸»ä¹ī": 2779,
      "å¤©åłĤ": 2780,
      "èµ°åĲĳ": 2781,
      "åĽłæŃ¤": 2782,
      "å¾Ĳ": 2783,
      "çļĦéĶ": 2784,
      "çİ°å®ŀ": 2785,
      "ç»ĵæĿŁ": 2786,
      "æĳĺ": 2787,
      "çļĦåĴ": 2788,
      "æĮĸ": 2789,
      "ä¸ºä½ł": 2790,
      "ä»ħä»ħ": 2791,
      "ï¼ŁâĢĿ": 2792,
      "åĩłä¹İ": 2793,
      "è®©æĪĳä»¬": 2794,
      "éĴ»": 2795,
      "å°¼": 2796,
      "ä½ıäºĨ": 2797,
      "éĻĨ": 2798,
      "èĬ±æľµ": 2799,
      "è¿«": 2800,
      "æ³Ľ": 2801,
      "åĽŀå¿Ĩ": 2802,
      "é¥¥": 2803,
      "å··": 2804,
      "éĤ£ä¹Īå¤ļ": 2805,
      "æĭ¥æĬ±": 2806,
      "åħį": 2807,
      "ç¢ĳ": 2808,
      "æľīä¸Ģä¸ª": 2809,
      "å¤ĸéĿ¢": 2810,
      "åĲĮæĹ¶": 2811,
      "çģĮ": 2812,
      "èº¯": 2813,
      "çļĦæ¯į": 2814,
      "ç§ĺå¯Ĩ": 2815,
      "åį§": 2816,
      "çļĦé±¼": 2817,
      "æĹłéĻĲ": 2818,
      "æĸĩåŃĹ": 2819,
      "æŁ´": 2820,
      "çıį": 2821,
      "æĢ¨": 2822,
      "èģĶ": 2823,
      "æķ¬": 2824,
      "è¾ŀ": 2825,
      "æĮ¡": 2826,
      "åı°ä¸Ĭ": 2827,
      "è¯´åĩº": 2828,
      "æĻ®": 2829,
      "ä»ģ": 2830,
      "æĻĴ": 2831,
      "æĿ¥çļĦ": 2832,
      "çļĦè®°å¿Ĩ": 2833,
      "æĸ¹åĲĳ": 2834,
      "æĴĳ": 2835,
      "çļĦèĲ": 2836,
      "åĨ»": 2837,
      "èµ·äºĨ": 2838,
      "çļĦæķħäºĭ": 2839,
      "ä¸Ģå¹´": 2840,
      "æ¹¾": 2841,
      "æ³½": 2842,
      "å¤´é¡¶": 2843,
      "çľŁæŃ£": 2844,
      "åĭĩ": 2845,
      "æĤ¦": 2846,
      "çļĦæĺŁ": 2847,
      "åĵĹ": 2848,
      "åĸ§": 2849,
      "åĵŃæ³£": 2850,
      "ä¸Ģéģĵ": 2851,
      "åº·": 2852,
      "çļĦåĳ½": 2853,
      "éħį": 2854,
      "ä¹Łæľī": 2855,
      "ä¸§": 2856,
      "å¯¸": 2857,
      "äº¦": 2858,
      "å°Ĭ": 2859,
      "éĹªçĥģ": 2860,
      "çļĦå§¿": 2861,
      "çľī": 2862,
      "æŁĶè½¯": 2863,
      "åĨł": 2864,
      "çĽĨ": 2865,
      "ä¿¯": 2866,
      "éŁ³ä¹Ĳ": 2867,
      "çļĦè°": 2868,
      "è£Ļ": 2869,
      "æĮ£": 2870,
      "å¤´ä¸Ĭ": 2871,
      "æ±½": 2872,
      "æĹĭè½¬": 2873,
      "å´ĸ": 2874,
      "ä¸ĭçļĦ": 2875,
      "ç¼ķ": 2876,
      "éĵľ": 2877,
      "ä¼¤åı£": 2878,
      "çļ®èĤ¤": 2879,
      "çļĦçĪ±æĥħ": 2880,
      "ä¸įåıĬ": 2881,
      "ä»İæŃ¤": 2882,
      "çļĦæ¸ħ": 2883,
      "æĢľ": 2884,
      "çľ¼åīį": 2885,
      "ä¼ĺ": 2886,
      "éĺ²": 2887,
      "çłģ": 2888,
      "é¥°": 2889,
      "æĹłè®º": 2890,
      "éħ¸": 2891,
      "å¡ĺ": 2892,
      "æħ§": 2893,
      "çĿ¡çľł": 2894,
      "çļĦèī": 2895,
      "ä¸Ģåı£": 2896,
      "æĺ¯çļĦ": 2897,
      "èŁ": 2898,
      "æµ¸": 2899,
      "çļĦæ²ī": 2900,
      "è¿Ļç§į": 2901,
      "ç®±": 2902,
      "æĺ¯ä¸ª": 2903,
      "æĮĤåľ¨": 2904,
      "è®¨": 2905,
      "åķĨ": 2906,
      "éĶĭ": 2907,
      "åıĤ": 2908,
      "åĬ©": 2909,
      "çľĭçľĭ": 2910,
      "é¹ħ": 2911,
      "æĪĳçľĭåĪ°": 2912,
      "åĩºåİ»": 2913,
      "åºı": 2914,
      "æĲ¬": 2915,
      "æĿĨ": 2916,
      "çļĦè¡¨": 2917,
      "ç»½": 2918,
      "æĮĳ": 2919,
      "ä¸Ģè·¯": 2920,
      "æıı": 2921,
      "æ¯ıä¸Ģä¸ª": 2922,
      "çļĦå®¶": 2923,
      "éĶĪ": 2924,
      "å®Įåħ¨": 2925,
      "ç®Ģåįķ": 2926,
      "å¤©åľ°": 2927,
      "æ³ªæ°´": 2928,
      "åħīæĺİ": 2929,
      "çĪ¶æ¯į": 2930,
      "å¯Ħ": 2931,
      "éľŀ": 2932,
      "åĪ·": 2933,
      "æīŃ": 2934,
      "å¸Ń": 2935,
      "æĹłæīĢ": 2936,
      "èĪĴ": 2937,
      "çļĦçĪ¶": 2938,
      "æīĶ": 2939,
      "çĨĦ": 2940,
      "įæĻļ": 2941,
      "åį±": 2942,
      "æĴŃ": 2943,
      "çº§": 2944,
      "æĪª": 2945,
      "æĬĬå®ĥ": 2946,
      "çľģ": 2947,
      "ç¾İå¥½": 2948,
      "çĻ½å¤©": 2949,
      "æīĭæĮĩ": 2950,
      "ä¹Įé¸¦": 2951,
      "æĪĳçļĦå¿ĥ": 2952,
      "çĤī": 2953,
      "é¢ħ": 2954,
      "åĤ²": 2955,
      "è¦ĨçĽĸ": 2956,
      "å¾Ħ": 2957,
      "æ¢¦éĩĮ": 2958,
      "ç³ĸ": 2959,
      "çļĩ": 2960,
      "äºĭçī©": 2961,
      "çĶ°éĩİ": 2962,
      "åľ¨ä¸Ģä¸ª": 2963,
      "çĮª": 2964,
      "ä¸ĵ": 2965,
      "å¥ĭ": 2966,
      "èĢĲ": 2967,
      "æĶ¹åıĺ": 2968,
      "èĤ¯å®ļ": 2969,
      "å¡ĳ": 2970,
      "çļĦè£": 2971,
      "éĻĦ": 2972,
      "æģ°": 2973,
      "åĸ·": 2974,
      "å®ģéĿĻ": 2975,
      "çļĦçĽ®åħī": 2976,
      "çĪĨ": 2977,
      "ç©¿è¶Ĭ": 2978,
      "èĤīä½ĵ": 2979,
      "åºĨ": 2980,
      "ä»İæľª": 2981,
      "è°ĭ": 2982,
      "éĹ®é¢ĺ": 2983,
      "è¡£æľį": 2984,
      "ç¥ŀç§ĺ": 2985,
      "æ£®æŀĹ": 2986,
      "å¤ľèī²": 2987,
      "åĸĤ": 2988,
      "éĵĥ": 2989,
      "å°½å¤´": 2990,
      "éķ¿åĩº": 2991,
      "å¿§ä¼¤": 2992,
      "éĥ½ä¼ļ": 2993,
      "æ¼ı": 2994,
      "éļĻ": 2995,
      "åľ¨è¿ĻéĩĮ": 2996,
      "çĭ¼": 2997,
      "å®¹æĺĵ": 2998,
      "ä¸Ģä½į": 2999,
      "ä¸ĭäºĨ": 3000,
      "åĬ¨çĿĢ": 3001,
      "æĪĳå·²": 3002,
      "çĻ½äºĳ": 3003,
      "åĿŁ": 3004,
      "ç¬¦": 3005,
      "åŀĭ": 3006,
      "å¥¹çļĦ": 3007,
      "ä¾Ľ": 3008,
      "æªĲ": 3009,
      "æ·±æ·±": 3010,
      "å°½ç®¡": 3011,
      "ç«¥å¹´": 3012,
      "çĥ¦": 3013,
      "éĥ½æľī": 3014,
      "åıįå¤į": 3015,
      "çļĦç§ĺ": 3016,
      "æĽ´åĬł": 3017,
      "æ¢¦è§ģ": 3018,
      "èĻļæĹł": 3019,
      "ä¼Łå¤§": 3020,
      "è°ĵ": 3021,
      "çªĿ": 3022,
      "çĩķ": 3023,
      "è¯įè¯Ń": 3024,
      "ä¸Ģåı¥": 3025,
      "ä½łè¦ģ": 3026,
      "è´Ŀ": 3027,
      "çļĦç¿ħèĨĢ": 3028,
      "éľ²åĩº": 3029,
      "èļĤèļģ": 3030,
      "ä»ĸåľ¨": 3031,
      "æľĢç»Ī": 3032,
      "ç§Ģ": 3033,
      "æ²īéĩį": 3034,
      "ç¥·": 3035,
      "èįīåİŁ": 3036,
      "æĭ¥æľī": 3037,
      "éĺ»": 3038,
      "èĭ¹æŀľ": 3039,
      "åı®": 3040,
      "ç¼ĸ": 3041,
      "çļĦçĮ": 3042,
      "æľĢå¥½": 3043,
      "æħĮ": 3044,
      "å¡«": 3045,
      "çļĦåĬĽ": 3046,
      "éĹ·": 3047,
      "é£İéĽ¨": 3048,
      "çķĻåľ¨": 3049,
      "èĲ½æĹ¥": 3050,
      "ä¸įèµ·": 3051,
      "èĢģäºº": 3052,
      "ãĢĮ": 3053,
      "å¯¹äºİ": 3054,
      "çº·çº·": 3055,
      "ĠæĪĳ": 3056,
      "åĲī": 3057,
      "çļĦæ£": 3058,
      "æİł": 3059,
      "è¯º": 3060,
      "æĬµè¾¾": 3061,
      "çĭł": 3062,
      "å®ĮæĪĲ": 3063,
      "å¹¿åľº": 3064,
      "äººç¾¤": 3065,
      "çļĦé¦Ļ": 3066,
      "è¾Ľ": 3067,
      "éª¨å¤´": 3068,
      "èĻ¹": 3069,
      "èĢĮè¿ĩ": 3070,
      "åħ³ç³»": 3071,
      "å°Ŀ": 3072,
      "éļ¾ä»¥": 3073,
      "æłı": 3074,
      "çĥĽ": 3075,
      "å·§": 3076,
      "åĮĹæĸ¹": 3077,
      "ä»¤äºº": 3078,
      "æİ¥åıĹ": 3079,
      "ç²¾ç¥ŀ": 3080,
      "çļĦéľ": 3081,
      "æµģæµª": 3082,
      "æĪĺäºī": 3083,
      "ãĢį": 3084,
      "æľīä»Ģä¹Ī": 3085,
      "èĢĮä¸Ķ": 3086,
      "çļĦå¤ľæĻļ": 3087,
      "ä¸ĺ": 3088,
      "åĮĹäº¬": 3089,
      "åľ¾": 3090,
      "ä¹ĺ": 3091,
      "å¸ĺ": 3092,
      "åı¸": 3093,
      "è§Ħ": 3094,
      "éģŃ": 3095,
      "å¸¦æĿ¥": 3096,
      "ĥåľ¾": 3097,
      "è¿ħ": 3098,
      "ä»İæĿ¥": 3099,
      "ç¥Ī": 3100,
      "æĬĬä½ł": 3101,
      "éĿ¢ä¸Ĭ": 3102,
      "ç¥¨": 3103,
      "çĹ´": 3104,
      "æ¬²æľĽ": 3105,
      "æĶ¾åľ¨": 3106,
      "çļĦä¸ĢåĪĩ": 3107,
      "éļĨ": 3108,
      "çļĦè¡Į": 3109,
      "çļĦæĸ°": 3110,
      "çļĦæĸĩ": 3111,
      "æ¼«éķ¿": 3112,
      "çĸ¼çĹĽ": 3113,
      "åģ¥": 3114,
      "çļĦå¾®": 3115,
      "æ²Ł": 3116,
      "çĥ¬": 3117,
      "æ¯ıä¸ª": 3118,
      "è®®": 3119,
      "æ´ª": 3120,
      "èĤļ": 3121,
      "æĳĩæĻĥ": 3122,
      "å¥¹è¯´": 3123,
      "æłĳä¸ĭ": 3124,
      "å¹³éĿĻ": 3125,
      "å°±è¿Ļæł·": 3126,
      "å¿ĺäºĨ": 3127,
      "å¹ħ": 3128,
      "åĪ°æĿ¥": 3129,
      "ä¼¸åĩº": 3130,
      "æĺ¯ä»Ģä¹Ī": 3131,
      "åįĳ": 3132,
      "èº«åĲİ": 3133,
      "å·¥ä½ľ": 3134,
      "åī¯": 3135,
      "åķ¡": 3136,
      "æľĽçĿĢ": 3137,
      "æį§": 3138,
      "ä¸įå®ī": 3139,
      "è¯±": 3140,
      "çĽĲ": 3141,
      "æĭĤ": 3142,
      "èħ¹": 3143,
      "çļĦéļ": 3144,
      "å¤§å®¶": 3145,
      "èĢĮæĺ¯": 3146,
      "è¾¨": 3147,
      "èĻĳ": 3148,
      "æį¡": 3149,
      "çĻ¾å¹´": 3150,
      "å°ĺåŁĥ": 3151,
      "åı¹æģ¯": 3152,
      "åľ¨å±±": 3153,
      "çļĦèĵ": 3154,
      "äº²çĪ±çļĦ": 3155,
      "åŃĲä¸Ĭ": 3156,
      "æ¯ķ": 3157,
      "è¢Ń": 3158,
      "éĴī": 3159,
      "ä¸¤åıª": 3160,
      "åĥıä¸Ģä¸ª": 3161,
      "å¾ĹåĪ°": 3162,
      "æĤĶ": 3163,
      "å®£": 3164,
      "æ·¹": 3165,
      "èĦ¸ä¸Ĭ": 3166,
      "åįļ": 3167,
      "çļĦéŁ³": 3168,
      "é©¶": 3169,
      "è¸ª": 3170,
      "éĹªçĶµ": 3171,
      "ä»İä¸į": 3172,
      "èµ°åĪ°": 3173,
      "çļĦè¡Ĺ": 3174,
      "ĸåķ¡": 3175,
      "æĺ¼": 3176,
      "ä¸ºæĪĳ": 3177,
      "é¢ĳ": 3178,
      "åŃ¦ä¼ļ": 3179,
      "ä½łçľĭ": 3180,
      "éĺħ": 3181,
      "ç¯ĩ": 3182,
      "é»ĺé»ĺ": 3183,
      "ä¸Ĭåİ»": 3184,
      "èĲİ": 3185,
      "æĳĬ": 3186,
      "æľīçĿĢ": 3187,
      "å±Ī": 3188,
      "å½ķ": 3189,
      "èµ°åĩº": 3190,
      "æī¶": 3191,
      "åĬ¡": 3192,
      "èĤł": 3193,
      "æ±ĩ": 3194,
      "è¯¾": 3195,
      "æĥľ": 3196,
      "äºĨä¸Ģä¸ª": 3197,
      "å¯¹çĿĢ": 3198,
      "æ¤įçī©": 3199,
      "çļĦéº": 3200,
      "åºĬä¸Ĭ": 3201,
      "æķĮ": 3202,
      "åĸ»": 3203,
      "åĬ¨çī©": 3204,
      "å¾Īä¹ħ": 3205,
      "åĬ²": 3206,
      "åĬŁ": 3207,
      "ä¸İæĪĳ": 3208,
      "æİ¥è¿ĳ": 3209,
      "çļĦèĥ¸": 3210,
      "æ¸Ķ": 3211,
      "ä¸ĢæŃ¥": 3212,
      "æĸ½": 3213,
      "é©°": 3214,
      "æ¯ıæ¬¡": 3215,
      "çļĦæĸ¹åĲĳ": 3216,
      "çĹĩ": 3217,
      "çļĦéĵģ": 3218,
      "åį³å°Ĩ": 3219,
      "è¿ĩçļĦ": 3220,
      "è¿ĺæ²¡": 3221,
      "æłĳä¸Ĭ": 3222,
      "çļĦç§ĺå¯Ĩ": 3223,
      "çĬ¯": 3224,
      "åľ¨éĤ£": 3225,
      "çĤ¸": 3226,
      "é¢Ŀ": 3227,
      "çļĦçĥŁ": 3228,
      "ªåĬĽ": 3229,
      "é³": 3230,
      "æ´²": 3231,
      "æº¢": 3232,
      "ä¸Ģéģį": 3233,
      "å°ıæĹ¶": 3234,
      "æ£ī": 3235,
      "å·¢": 3236,
      "ç§Ĵ": 3237,
      "æĶ¾å¼ĥ": 3238,
      "æī¾ä¸įåĪ°": 3239,
      "çĲª": 3240,
      "è£¤": 3241,
      "éķ¿å¤§": 3242,
      "åĲĦèĩª": 3243,
      "æľ½": 3244,
      "åİħ": 3245,
      "æĹłè¾¹": 3246,
      "åĲĳæĪĳ": 3247,
      "ç»ıåİĨ": 3248,
      "ä½¿æĪĳ": 3249,
      "æľīä¸Ģå¤©": 3250,
      "æĲŃ": 3251,
      "æ¬£": 3252,
      "æ¸Ĭ": 3253,
      "ç¬¬äºĮ": 3254,
      "çļĦåīį": 3255,
      "éĺ´å½±": 3256,
      "åľ¨æĪĳä»¬": 3257,
      "çļĦæ¯ı": 3258,
      "åįģäºĮ": 3259,
      "åľ¨éĤ£éĩĮ": 3260,
      "å¿ĥçģµ": 3261,
      "çļĦèĦļæŃ¥": 3262,
      "æĪĲä¸Ģ": 3263,
      "é£İæĻ¯": 3264,
      "çļĦåĲįåŃĹ": 3265,
      "çļĦçľŁ": 3266,
      "è¡Ĺä¸Ĭ": 3267,
      "æī¯": 3268,
      "çļĦç¢": 3269,
      "è¯µ": 3270,
      "æĻ°": 3271,
      "æ±¡": 3272,
      "ç¨»": 3273,
      "åĤįæĻļ": 3274,
      "å°º": 3275,
      "æĦ¤": 3276,
      "çĽ²": 3277,
      "æĩĴ": 3278,
      "æĻķ": 3279,
      "çľ¼æ³ª": 3280,
      "çļĦæ²Ļ": 3281,
      "éģĩè§ģ": 3282,
      "é»ĳæļĹä¸Ń": 3283,
      "æģĲæĥ§": 3284,
      "æĵį": 3285,
      "æĪĳä»¬åľ¨": 3286,
      "çļĦçŁ³å¤´": 3287,
      "æįī": 3288,
      "ä¸ĭéĿ¢": 3289,
      "åĽŀå¤´": 3290,
      "çĸ«": 3291,
      "åĴĴ": 3292,
      "æŃĩ": 3293,
      "çĶµè§Ĩ": 3294,
      "åĳĬè¯īæĪĳ": 3295,
      "èµŀç¾İ": 3296,
      "çļĦæ¯įäº²": 3297,
      "èĲ¨": 3298,
      "å»Ĭ": 3299,
      "æĪĳçĶ¨": 3300,
      "åŃķ": 3301,
      "çļĦéħĴ": 3302,
      "æľŁå¾ħ": 3303,
      "äººæ°ĳ": 3304,
      "çļĦæİ": 3305,
      "çļĦé¢ľ": 3306,
      "é«ĺé«ĺ": 3307,
      "çļĦçģ°": 3308,
      "çļĦæĥ³": 3309,
      "è½°": 3310,
      "åĲĦç§į": 3311,
      "èł": 3312,
      "åĴ½": 3313,
      "éĶħ": 3314,
      "åįĹæĸ¹": 3315,
      "ä¸Ńå¹´": 3316,
      "å§ĵ": 3317,
      "éĩĳé»Ħ": 3318,
      "çĬ¹å¦Ĥ": 3319,
      "ä¸ĢæĶ¯": 3320,
      "åĪ®": 3321,
      "æłĳæŀĹ": 3322,
      "å¯ĴåĨ·": 3323,
      "åºĻ": 3324,
      "æ²¾": 3325,
      "æĤŁ": 3326,
      "åĪ°å¤Ħ": 3327,
      "è¿ľè¿ľ": 3328,
      "çĮľ": 3329,
      "æ±¤": 3330,
      "å§ĳå¨ĺ": 3331,
      "äºĨä½ł": 3332,
      "åķ¸": 3333,
      "çļĦä¸Ģä¸ª": 3334,
      "è¢ĸ": 3335,
      "çļĦåĳ¼åĲ¸": 3336,
      "çļĦåĢ": 3337,
      "èĬ±å¼Ģ": 3338,
      "çī¢": 3339,
      "æĭ¢": 3340,
      "ç¦»åİ»": 3341,
      "ç¼ĵæħ¢": 3342,
      "çļĦéģĵ": 3343,
      "åľ°ä¸ĭ": 3344,
      "åĨĻä¸ĭ": 3345,
      "åģľæŃ¢": 3346,
      "çħ§äº®": 3347,
      "çļĦç§ĭ": 3348,
      "æĭ¼": 3349,
      "æµ´": 3350,
      "ä¸ºä½ķ": 3351,
      "é²ģ": 3352,
      "ç¨³": 3353,
      "åĲĬ": 3354,
      "èĥĨ": 3355,
      "éĽ¨ä¸Ń": 3356,
      "çļĦå¿§": 3357,
      "ä½įç½®": 3358,
      "åļ¼": 3359,
      "æĬĳ": 3360,
      "è¯ŀçĶŁ": 3361,
      "æĺ¯åľ¨": 3362,
      "åĴ³": 3363,
      "æĶĢ": 3364,
      "ç´§ç´§": 3365,
      "èĹıåľ¨": 3366,
      "è¹Ī": 3367,
      "çļĦåĶ": 3368,
      "çļĦé£ŀ": 3369,
      "çļĦçĹĽ": 3370,
      "ç¥Ŀ": 3371,
      "çĤ¹çĩĥ": 3372,
      "00": 3373,
      "åŁŁ": 3374,
      "æ²³æ°´": 3375,
      "çļĦåĬ¨": 3376,
      "ä¸Ģä»¶": 3377,
      "èĬ¦": 3378,
      "æģį": 3379,
      "å¾Ģäºĭ": 3380,
      "ä¸Ģæ®µ": 3381,
      "æĹ¦": 3382,
      "èıĬ": 3383,
      "ä¸»äºº": 3384,
      "çŁŃæļĤ": 3385,
      "ä¸Ģå±Ĥ": 3386,
      "çļĦåģ": 3387,
      "æİ§": 3388,
      "éĹ¨åı£": 3389,
      "è½¬èº«": 3390,
      "å¨ģ": 3391,
      "å«©": 3392,
      "èĭĹ": 3393,
      "çļĦäººä»¬": 3394,
      "è¹²": 3395,
      "çļĦæ¼": 3396,
      "æīĭæľº": 3397,
      "ä¸īä¸ª": 3398,
      "çŁ®": 3399,
      "çļĦæŀľ": 3400,
      "æİı": 3401,
      "åĸī": 3402,
      "èµı": 3403,
      "æĦıä¹ī": 3404,
      "é¼»": 3405,
      "å°±èĥ½": 3406,
      "æĭĨ": 3407,
      "æĪĳæľī": 3408,
      "çļĦç½": 3409,
      "çĮİ": 3410,
      "ä¸įæĥ³": 3411,
      "éĢĲæ¸Ĳ": 3412,
      "ä»ĺ": 3413,
      "æĿ¥ä¸´": 3414,
      "å¥½äºĨ": 3415,
      "çļĦçĶŁåĳ½": 3416,
      "è§ģè¿ĩ": 3417,
      "çļĦæĹ¶åĪ»": 3418,
      "çļĦèĵĿ": 3419,
      "åıĶ": 3420,
      "åĩŃ": 3421,
      "åĸĺ": 3422,
      "æŁ¥": 3423,
      "è¿Ļä¸ªä¸ĸçķĮ": 3424,
      "æģ©": 3425,
      "âĢĿï¼Į": 3426,
      "ä¸īæľĪ": 3427,
      "æĹģè¾¹": 3428,
      "å¤º": 3429,
      "æĺĤ": 3430,
      "å¤©æ°Ķ": 3431,
      "ç¿ħ": 3432,
      "é¹ĥ": 3433,
      "çļĦä¿¡": 3434,
      "å¥³åŃ©": 3435,
      "æ°´ä¸Ń": 3436,
      "çļĦçĥŃ": 3437,
      "åįĹäºº": 3438,
      "åĨ³å®ļ": 3439,
      "æĬļæĳ¸": 3440,
      "çļĦéĥ": 3441,
      "æ±ģ": 3442,
      "è¿ĽäºĨ": 3443,
      "æĺ¥é£İ": 3444,
      "ç¿ł": 3445,
      "èĦļä¸ĭ": 3446,
      "çļĦé»ĳæļĹ": 3447,
      "å¡Į": 3448,
      "ä»ĩ": 3449,
      "è¿ĺæ²¡æľī": 3450,
      "çļĦåĳ³": 3451,
      "èĹ¤": 3452,
      "çļĦçľ¼ç¥ŀ": 3453,
      "éĻ¶": 3454,
      "æī£": 3455,
      "æ»ĭ": 3456,
      "é¹¿": 3457,
      "éĢ¢": 3458,
      "åľ¨ä»ĸ": 3459,
      "å¹¼": 3460,
      "åĬªåĬĽ": 3461,
      "èĤ¢": 3462,
      "ç½Ĳ": 3463,
      "éĿ©": 3464,
      "ä¹Łæ²¡": 3465,
      "åħģ": 3466,
      "æįķ": 3467,
      "èĥĮåĲİ": 3468,
      "æĭ¬": 3469,
      "ä¿ĥ": 3470,
      "èĪŁ": 3471,
      "è¡«": 3472,
      "èµ·ä¼ı": 3473,
      "ä¼łè¯´": 3474,
      "ä¸įåģľåľ°": 3475,
      "åĮĨåĮĨ": 3476,
      "åķ¥": 3477,
      "æºľ": 3478,
      "è·¯è¿ĩ": 3479,
      "åĪĨéĴŁ": 3480,
      "å®³æĢķ": 3481,
      "ä¸Ģæŀļ": 3482,
      "ç²®": 3483,
      "æ¸ħæĻ°": 3484,
      "çĥ«": 3485,
      "ç¥Ń": 3486,
      "ä¼¦": 3487,
      "æł¸": 3488,
      "éĢĨ": 3489,
      "èµ°æĿ¥": 3490,
      "çĽ®åħī": 3491,
      "éģĵè·¯": 3492,
      "èĪª": 3493,
      "è´£": 3494,
      "éº»éĽĢ": 3495,
      "çļĦçĪ¶äº²": 3496,
      "ä¸Ģç²Ĵ": 3497,
      "çļĦæ¨": 3498,
      "è¾½": 3499,
      "è°ħ": 3500,
      "æĦıè¯Ĩ": 3501,
      "ä¸Ī": 3502,
      "çļĦæ¹": 3503,
      "å¸¸å¸¸": 3504,
      "æ½®æ¹¿": 3505,
      "çģ¿çĥĤ": 3506,
      "èµĦ": 3507,
      "æĪĳä¸Ģ": 3508,
      "ç§ĭé£İ": 3509,
      "çļĦçĤ": 3510,
      "çļĦå¯Ĥ": 3511,
      "åĪ¤": 3512,
      "æłĹ": 3513,
      "æµģæ·Į": 3514,
      "çĨĬ": 3515,
      "çļĦå¤ªéĺ³": 3516,
      "ä»ª": 3517,
      "è¿ľç¦»": 3518,
      "é¢ľèī²": 3519,
      "ä¹³æĪ¿": 3520,
      "åĲµ": 3521,
      "éħ·": 3522,
      "ä¸ĢæĿ¯": 3523,
      "ç©´": 3524,
      "èĭĩ": 3525,
      "æ¢¦æĥ³": 3526,
      "åŀĥåľ¾": 3527,
      "çļĦå¥½": 3528,
      "çļĦé¢ľèī²": 3529,
      "åĴĸåķ¡": 3530,
      "çĸı": 3531,
      "è¹Ħ": 3532,
      "çļĦç²¾": 3533,
      "æĪĳæ²¡æľī": 3534,
      "ä¼¯": 3535,
      "æ·±å¤ľ": 3536,
      "éĩįè¦ģ": 3537,
      "çº¸ä¸Ĭ": 3538,
      "çļĦäºĭæĥħ": 3539,
      "çļĦä¹¦": 3540,
      "ä¼ª": 3541,
      "çĤ¼": 3542,
      "éļıçĿĢ": 3543,
      "çļĦæ³¢": 3544,
      "çļĦåŁİå¸Ĥ": 3545,
      "å®ĭ": 3546,
      "æľīæĹ¶åĢĻ": 3547,
      "éĤ£åıª": 3548,
      "é©±": 3549,
      "èĶĵ": 3550,
      "çļĦè½¦": 3551,
      "çļĦæŀĿ": 3552,
      "è¿ĻæĹ¶": 3553,
      "æĺ¯ä¸įæĺ¯": 3554,
      "èĢĮä½ł": 3555,
      "æħĪ": 3556,
      "å¤§éĽª": 3557,
      "æĭĲ": 3558,
      "çļĦæĽ": 3559,
      "èĥĸ": 3560,
      "çļĦæ³¥": 3561,
      "çĽĽå¼Ģ": 3562,
      "ç¢§": 3563,
      "æ¾Ī": 3564,
      "çļĦçĲĨ": 3565,
      "åĴĮä½ł": 3566,
      "åĩºéĹ¨": 3567,
      "æĹħè¡Į": 3568,
      "å¢Ļä¸Ĭ": 3569,
      "çĳŁ": 3570,
      "çļĨ": 3571,
      "æķı": 3572,
      "å¼ĢèĬ±": 3573,
      "çĲĨè§£": 3574,
      "æĢĢçĸĳ": 3575,
      "éģĩåĪ°": 3576,
      "çļĦæ®": 3577,
      "éĩįå¤į": 3578,
      "çģ¯åħī": 3579,
      "éŀŃ": 3580,
      "å¿§éĥģ": 3581,
      "ä¸įæķ¢": 3582,
      "èħĶ": 3583,
      "åİ»å¹´": 3584,
      "æĮ½": 3585,
      "åĽŀåİ»": 3586,
      "æºħ": 3587,
      "äºĶæľĪ": 3588,
      "æĺ¨å¤ľ": 3589,
      "ä»Ķ": 3590,
      "åĨįä¹Ł": 3591,
      "åĽ½å®¶": 3592,
      "è¿ĽæĿ¥": 3593,
      "çļĦèĬ±æľµ": 3594,
      "æ¢¢": 3595,
      "çļĦè·¯ä¸Ĭ": 3596,
      "çļĦéĩİ": 3597,
      "æĤ£": 3598,
      "åİŁæĿ¥": 3599,
      "éĢļè¿ĩ": 3600,
      "æŁĲä¸ª": 3601,
      "çĸ¯çĭĤ": 3602,
      "è°İ": 3603,
      "æ¡¶": 3604,
      "âĢ¦âĢ¦âĢĿ": 3605,
      "åİĤ": 3606,
      "éªĤ": 3607,
      "å®īçĲª": 3608,
      "çļĦçŁ": 3609,
      "è½¨": 3610,
      "ä¸ĸéĹ´": 3611,
      "åĩĦ": 3612,
      "è·¨": 3613,
      "éĤ£ç§į": 3614,
      "çĤİ": 3615,
      "çļĦä½ł": 3616,
      "æĹłåħ³": 3617,
      "è²": 3618,
      "ä¸¹": 3619,
      "æĪĳåĸľæ¬¢": 3620,
      "çļĦé¼": 3621,
      "ä¿©": 3622,
      "äººåľ¨": 3623,
      "æĥ«": 3624,
      "æłĳæľ¨": 3625,
      "åłµ": 3626,
      "çļĦèĿ": 3627,
      "è¾ĪåŃĲ": 3628,
      "æĿı": 3629,
      "æ´¾": 3630,
      "å®¶éĩĮ": 3631,
      "çĽ¸äºĴ": 3632,
      "åįĥä¸ĩ": 3633,
      "çģ¾": 3634,
      "çłĸ": 3635,
      "æľ±": 3636,
      "æ±ª": 3637,
      "å®Įæķ´": 3638,
      "é¢¤æĬĸ": 3639,
      "Ġåľ¨": 3640,
      "åĩı": 3641,
      "è¶³å¤Ł": 3642,
      "çļĦå±ĭ": 3643,
      "ä¸įå¥½": 3644,
      "æī°": 3645,
      "æµĬ": 3646,
      "èĮĤ": 3647,
      "å½ĵä½ł": 3648,
      "ä¸Ģå¤ľ": 3649,
      "çļĦçŀ": 3650,
      "çĿ¡çĿĢ": 3651,
      "çļĦæīĭæĮĩ": 3652,
      "èĦĬ": 3653,
      "åĩĭ": 3654,
      "å·¾": 3655,
      "æĪĲçĨŁ": 3656,
      "éĽªèĬ±": 3657,
      "åĿ¦": 3658,
      "æľīåħ³": 3659,
      "éĽģ": 3660,
      "ç»ĵæŀľ": 3661,
      "åĳĪ": 3662,
      "å®ĥæĺ¯": 3663,
      "è¿ĺèĥ½": 3664,
      "èĥİ": 3665,
      "çĽ¸éģĩ": 3666,
      "åĩºçĶŁ": 3667,
      "å¾Ĺå¾Ī": 3668,
      "¡èĲ": 3669,
      "èī¾": 3670,
      "æĩĤå¾Ĺ": 3671,
      "èª": 3672,
      "åĪ°è¾¾": 3673,
      "æİ¥çĿĢ": 3674,
      "ä¸įçĶ¨": 3675,
      "ç¬Ľ": 3676,
      "çĶµå½±": 3677,
      "ä¹¡æĿĳ": 3678,
      "çļĦè¾¹": 3679,
      "æĹ©ä¸Ĭ": 3680,
      "çħ®": 3681,
      "æĭħå¿ĥ": 3682,
      "éķ¿éķ¿": 3683,
      "çºł": 3684,
      "å±ı": 3685,
      "æĸ°é²ľ": 3686,
      "ç¬¬ä¸Ģæ¬¡": 3687,
      "å¿ł": 3688,
      "ä¸İä½ł": 3689,
      "é¦ĸè¯Ĺ": 3690,
      "çļĦæľ¨": 3691,
      "éĻįä¸´": 3692,
      "çļĦåĳ½è¿Ĳ": 3693,
      "å¤©ä¸ĭ": 3694,
      "éĿłè¿ĳ": 3695,
      "èĢ»": 3696,
      "åĮĻ": 3697,
      "è·ŁçĿĢ": 3698,
      "èĲ¥": 3699,
      "çļĦç¬¬": 3700,
      "å®ľ": 3701,
      "æķŀ": 3702,
      "éļĶçĿĢ": 3703,
      "çļĦéĺ´å½±": 3704,
      "ä½łå°±": 3705,
      "å¯¹éĿ¢": 3706,
      "åĿĲçĿĢ": 3707,
      "ä¼łæĿ¥": 3708,
      "çļĦåĬĽéĩı": 3709,
      "çİĽ": 3710,
      "çļĦæĹ¶åħī": 3711,
      "æĢĿå¿µ": 3712,
      "è®¿": 3713,
      "èį«": 3714,
      "åĢ¾åĲ¬": 3715,
      "çļĦå¢Ļ": 3716,
      "ä¸Ģå¤´": 3717,
      "åľ°éĩĮ": 3718,
      "çļĦæĶ": 3719,
      "èĥĢ": 3720,
      "èĽĻ": 3721,
      "ä»įåľ¨": 3722,
      "èĳµ": 3723,
      "é¥¥é¥¿": 3724,
      "çļĦåĦ¿": 3725,
      "å¸ģ": 3726,
      "ä¹Łåľ¨": 3727,
      "è¿Ľåİ»": 3728,
      "åħĪçĶŁ": 3729,
      "æĬ±çĿĢ": 3730,
      "ä¸Ģæľ¬": 3731,
      "åł¡": 3732,
      "å°¾å·´": 3733,
      "¡èĲĦ": 3734,
      "æµģåĬ¨": 3735,
      "æŁı": 3736,
      "çļĦçĶŁ": 3737,
      "ä¸īåįģ": 3738,
      "å¢Ł": 3739,
      "çļĦæ²³æµģ": 3740,
      "æĿĲ": 3741,
      "ä¸Ģä¸ªä¸ª": 3742,
      "çļĦèĲ½": 3743,
      "èĢĮåİ»": 3744,
      "æİīäºĨ": 3745,
      "èĬ±åĽŃ": 3746,
      "å°ĺä¸ĸ": 3747,
      "ç§»åĬ¨": 3748,
      "å¤®": 3749,
      "é¸ŁåĦ¿": 3750,
      "çļĦæĸ¹å¼ı": 3751,
      "æ¯«æĹł": 3752,
      "çļĦåĳ³éģĵ": 3753,
      "´åĦ¿": 3754,
      "çļĦä¸ĢçĶŁ": 3755,
      "çļĦèĮ": 3756,
      "ä¸įå¦Ĥ": 3757,
      "å°ļæľª": 3758,
      "åªļ": 3759,
      "è²Į": 3760,
      "ä¸Ģå¦Ĥ": 3761,
      "çģ¼": 3762,
      "ç©ºç©º": 3763,
      "çļĦåĨ·": 3764,
      "èĩªæĪĳ": 3765,
      "çļĦæĮĩ": 3766,
      "æ·¹æ²¡": 3767,
      "æŁĲç§į": 3768,
      "çļĦå¯¹": 3769,
      "åļ£": 3770,
      "èİ·å¾Ĺ": 3771,
      "è´§": 3772,
      "äºĳæľµ": 3773,
      "æŀķ": 3774,
      "æĪĳä¸įçŁ¥éģĵ": 3775,
      "ç»ıå¸¸": 3776,
      "æĲģ": 3777,
      "èĢģäºĨ": 3778,
      "è¯ķåĽ¾": 3779,
      "çļĦèĭ¦": 3780,
      "çļĦèľ": 3781,
      "æĥŁ": 3782,
      "çĦļ": 3783,
      "äº²äºº": 3784,
      "çļĦé£İæĻ¯": 3785,
      "æīĭä¸Ń": 3786,
      "åŃ©åŃĲä»¬": 3787,
      "çĨĦçģŃ": 3788,
      "ä¹ĭä¸ĭ": 3789,
      "äºŃ": 3790,
      "æłĸ": 3791,
      "çĽĴ": 3792,
      "åĮħæĭ¬": 3793,
      "èĶ½": 3794,
      "ä»°æľĽ": 3795,
      "çļĦéĥ¨": 3796,
      "å°¿": 3797,
      "å¸¦èµ°": 3798,
      "å¹´åīį": 3799,
      "æĶ¾ä¸ĭ": 3800,
      "çł¸": 3801,
      "çļĦåİŁ": 3802,
      "èĭ±éĽĦ": 3803,
      "è·¯è¾¹": 3804,
      "æŁ±": 3805,
      "äºĴçĽ¸": 3806,
      "è¿ĩç¨ĭ": 3807,
      "é¢ł": 3808,
      "èĭĶ": 3809,
      "çłį": 3810,
      "å¼łå¼Ģ": 3811,
      "çł´ç¢İ": 3812,
      "èĮ«èĮ«": 3813,
      "åĨµ": 3814,
      "æĥ³çĿĢ": 3815,
      "æ´ģçĻ½": 3816,
      "æ²¸": 3817,
      "è¿ĺä¼ļ": 3818,
      "è¶£": 3819,
      "æ²Ļæ¼ł": 3820,
      "è¡Ĺéģĵ": 3821,
      "å¾Īå¿«": 3822,
      "åģ¶çĦ¶": 3823,
      "å¥Ī": 3824,
      "æ¸Ĺ": 3825,
      "å±±ä¸Ĭ": 3826,
      "æ¶¨": 3827,
      "èº«åŃĲ": 3828,
      "çļĦæ°Ķæģ¯": 3829,
      "çļĦèº«å½±": 3830,
      "æľ´": 3831,
      "çĽ¼": 3832,
      "æħķ": 3833,
      "ä¸ĢåįĬ": 3834,
      "é£İæļ´": 3835,
      "æ²īçĿ¡": 3836,
      "å±ĭé¡¶": 3837,
      "æłĳæŀĿ": 3838,
      "æĿİçĻ½": 3839,
      "çļĦæĢĢ": 3840,
      "æĹ·éĩİ": 3841,
      "ä¹Įäºĳ": 3842,
      "è¿Ļä¸ĢåĪĩ": 3843,
      "ä»İåīį": 3844,
      "éĶĲ": 3845,
      "æĺ¾å¾Ĺ": 3846,
      "åıĽ": 3847,
      "è®©å®ĥ": 3848,
      "æĺŁåħī": 3849,
      "èĿī": 3850,
      "çļĦåĽ½": 3851,
      "å«ģ": 3852,
      "åħģè®¸": 3853,
      "ç«ĸ": 3854,
      "å¾®å¾®": 3855,
      "ä¸įå¿ħ": 3856,
      "äºĨåĩł": 3857,
      "è¾ĥ": 3858,
      "æĽ³": 3859,
      "æ¢¨": 3860,
      "åħ¬åĽŃ": 3861,
      "åĨ°åĨ·": 3862,
      "èĳ±": 3863,
      "æĪĳåıĪ": 3864,
      "åĪ°åºķ": 3865,
      "å¤§çļĦ": 3866,
      "ä¸ĢçĽ´åľ¨": 3867,
      "è¿ģ": 3868,
      "å´©": 3869,
      "ç©¿çĿĢ": 3870,
      "èĢģå¸Ī": 3871,
      "ä½İå¤´": 3872,
      "çļĦåľŁ": 3873,
      "æ¸ħæ¥ļ": 3874,
      "ä½łä¼ļ": 3875,
      "åĿļæĮģ": 3876,
      "çļĦçģ«çĦ°": 3877,
      "æľīä¸Ģç§į": 3878,
      "åĭĴ": 3879,
      "åħĶ": 3880,
      "èĨĽ": 3881,
      "æĳĶ": 3882,
      "çļĦæĺ¥å¤©": 3883,
      "æĪĳå·²ç»ı": 3884,
      "é¸Ń": 3885,
      "æĲº": 3886,
      "çĩ¥": 3887,
      "æĬ¬å¤´": 3888,
      "çļĦæ¬¢": 3889,
      "åľ¨æµ·": 3890,
      "ç¨į": 3891,
      "å¼¥æ¼«": 3892,
      "æ±½è½¦": 3893,
      "ä¸ĭéĽ¨": 3894,
      "åºľ": 3895,
      "çĸ²æĥ«": 3896,
      "æĺĨ": 3897,
      "æ¼¾": 3898,
      "èįīæľ¨": 3899,
      "çľŁçĲĨ": 3900,
      "èµĽ": 3901,
      "æ¸º": 3902,
      "é£ŀè¿ĩ": 3903,
      "å®īæħ°": 3904,
      "åįĪå¤ľ": 3905,
      "ä¹Łä¸įä¼ļ": 3906,
      "çļĦæĦŁè§ī": 3907,
      "ä¸įæĽ¾": 3908,
      "æ²§": 3909,
      "é¾Ħ": 3910,
      "ä¸Ģä¼ļåĦ¿": 3911,
      "åľ¨è¿Ļä¸ª": 3912,
      "è·Ŀç¦»": 3913,
      "çĥ¤": 3914,
      "æ¶ī": 3915,
      "éĶ®": 3916,
      "çªĹæĪ·": 3917,
      "æķ£æŃ¥": 3918,
      "è¿Ļå°±æĺ¯": 3919,
      "å°ĨæĪĳ": 3920,
      "èĦļæŃ¥": 3921,
      "ç¥ĸåĽ½": 3922,
      "ä¼Ĭæ²Ļ": 3923,
      "è´ª": 3924,
      "çģ°å°ĺ": 3925,
      "ä¸Ģä¸Ŀ": 3926,
      "æĪĳä»¬éĥ½": 3927,
      "åĮ»éĻ¢": 3928,
      "è¯¸": 3929,
      "çļĦçĶ·äºº": 3930,
      "ä¸ĢåıĮ": 3931,
      "æĺĶ": 3932,
      "å¼ĢæĶ¾": 3933,
      "èĤº": 3934,
      "å²Ĺ": 3935,
      "æīĵçĿĢ": 3936,
      "å¢ŀ": 3937,
      "ä¹ı": 3938,
      "è§ģåĪ°": 3939,
      "å¦Ĥæŀľä½ł": 3940,
      "çļĦè§Ĵ": 3941,
      "æ¢³": 3942,
      "æ®¿": 3943,
      "çļĦæ¸¸": 3944,
      "æµĩ": 3945,
      "ä¸Ńå¿ĥ": 3946,
      "ä¸Ĭåįĩ": 3947,
      "å±ģ": 3948,
      "åīįéĿ¢": 3949,
      "åĤ¬": 3950,
      "ĬçĥŁ": 3951,
      "çļĦä¸į": 3952,
      "æĪĳå¯¹": 3953,
      "ç®Ń": 3954,
      "å¨ĥ": 3955,
      "ä¸įç®¡": 3956,
      "å¤©ä½¿": 3957,
      "æīįæĺ¯": 3958,
      "è¯ģæĺİ": 3959,
      "æ¼Ĥäº®": 3960,
      "ä¸Ģé¦ĸè¯Ĺ": 3961,
      "çļĦéŃ": 3962,
      "åħ¶ä»ĸ": 3963,
      "åĿļç¡¬": 3964,
      "æ¡Įä¸Ĭ": 3965,
      "åı¬": 3966,
      "ä¹ĥ": 3967,
      "åĵªæĢķ": 3968,
      "ç«Ļç«ĭ": 3969,
      "çļĦåħīèĬĴ": 3970,
      "åıĺæĪĲäºĨ": 3971,
      "çļĦåıĮ": 3972,
      "æľīä¸ĢäºĽ": 3973,
      "åĹ½": 3974,
      "å®¶ä¹¡": 3975,
      "è¡Įè½¦": 3976,
      "åİŁè°ħ": 3977,
      "å½ĴæĿ¥": 3978,
      "éĢĤåĲĪ": 3979,
      "å®Įç¾İ": 3980,
      "çļĦèĪŀ": 3981,
      "é«": 3982,
      "åľ¨å¤§": 3983,
      "ä¸įå¤Ł": 3984,
      "å¦ĸ": 3985,
      "ä»İæĪĳ": 3986,
      "åĲĳä½ł": 3987,
      "çļĦæļĹ": 3988,
      "çļĦéĩĳ": 3989,
      "çļĦæ»": 3990,
      "æī¹": 3991,
      "ä¸įä¸Ĭ": 3992,
      "å£¶": 3993,
      "ä»Ĭå¹´": 3994,
      "çļĦåĨ¬": 3995,
      "çļĦç§į": 3996,
      "èīºæľ¯": 3997,
      "åĳĬåĪ«": 3998,
      "èĭįçĻ½": 3999,
      "æĪĳæĽ¾": 4000,
      "åĲĵ": 4001,
      "ç§¦": 4002,
      "å¼¯æĽ²": 4003,
      "çļĦå·¥": 4004,
      "è¿ĩåĲİ": 4005,
      "åįĥéĩĮ": 4006,
      "®åŃĲ": 4007,
      "è¿Ī": 4008,
      "åİ¿": 4009,
      "åıªåī©ä¸ĭ": 4010,
      "è´¤": 4011,
      "çļĦå¹¸": 4012,
      "çļĦæ¶Ī": 4013,
      "åĩ¶": 4014,
      "åº¸": 4015,
      "æİĢ": 4016,
      "çĪ¸çĪ¸": 4017,
      "çļĦæ¬²": 4018,
      "¥åĮĻ": 4019,
      "çļĦè¯Ńè¨Ģ": 4020,
      "æĿ¥ä¸įåıĬ": 4021,
      "ç©ºéĹ´": 4022,
      "é¢Ĥ": 4023,
      "ä¸Ģæ¬¡æ¬¡": 4024,
      "åĳ¨åĽ´": 4025,
      "å¹¶éĿŀ": 4026,
      "ä»ĵ": 4027,
      "èĬľ": 4028,
      "çļĦè·Ŀç¦»": 4029,
      "æ§Ĳ": 4030,
      "çļĦæ¤": 4031,
      "çļĦèĽ": 4032,
      "æĦŁåıĹ": 4033,
      "æĺ¯ä¸Ģåıª": 4034,
      "ç»½æĶ¾": 4035,
      "æľīçļĦ": 4036,
      "éĤª": 4037,
      "æĹ¶åĪ»": 4038,
      "åĮł": 4039,
      "çĶľèľľ": 4040,
      "çľº": 4041,
      "ä¹Łä¸įæĺ¯": 4042,
      "æįŁ": 4043,
      "ä¾¿æĺ¯": 4044,
      "çļĦç«¥": 4045,
      "æĪĳéĥ½": 4046,
      "åıĪæĺ¯": 4047,
      "çļĦå¿«": 4048,
      "åı¦ä¸Ģç§į": 4049,
      "çļĦèįĴ": 4050,
      "è¾½éĺĶ": 4051,
      "æµĨ": 4052,
      "éĥŃ": 4053,
      "å½»åºķ": 4054,
      "çĤ®": 4055,
      "æĪĸæĺ¯": 4056,
      "éĹ¨åīį": 4057,
      "åŃ¦çĶŁ": 4058,
      "åŃ¦ä¹ł": 4059,
      "è¿ħéĢŁ": 4060,
      "ä¸ĢéĿ¢": 4061,
      "èµĭ": 4062,
      "âĢĿãĢĤ": 4063,
      "åĭ¾": 4064,
      "ä¹ĮéĿĴ": 4065,
      "çļĦéĹ®": 4066,
      "åħīçº¿": 4067,
      "æĺİæľĪ": 4068,
      "è£³": 4069,
      "å¤±è´¥": 4070,
      "è¶Ĭè¿ĩ": 4071,
      "åºķä¸ĭ": 4072,
      "å¹»æĥ³": 4073,
      "æ³¨å®ļ": 4074,
      "éħ¿": 4075,
      "å¤±çľł": 4076,
      "æ¯ıä¸ªäºº": 4077,
      "èĴ¸": 4078,
      "çļĦçł": 4079,
      "åħīèĬĴ": 4080,
      "çĪ±ä½ł": 4081,
      "æīĢæľīçļĦ": 4082,
      "çģ°çĥ¬": 4083,
      "çļĦç©ºæ°Ķ": 4084,
      "å¾Ĭ": 4085,
      "éĤ£å¤©": 4086,
      "ä¾ĭ": 4087,
      "éĥİ": 4088,
      "åĽĽæľĪ": 4089,
      "åĪ¶éĢł": 4090,
      "ç©¶ç«Ł": 4091,
      "åĪĽéĢł": 4092,
      "æĲŀ": 4093,
      "çļĦåı£": 4094,
      "åĽļ": 4095,
      "åĬ«": 4096,
      "åĲĲåĩº": 4097,
      "ä¸Ģæ£µæłĳ": 4098,
      "æĮ¨": 4099,
      "äºĭæĥħ": 4100,
      "ç¾½æ¯Ľ": 4101,
      "æĬ¢": 4102,
      "å±ĳ": 4103,
      "èµµ": 4104,
      "æ¬¾": 4105,
      "è¿½éĢĲ": 4106,
      "åĿłèĲ½": 4107,
      "é£ŀæľº": 4108,
      "åł¤": 4109,
      "çļĦçº¸": 4110,
      "å·«": 4111,
      "èº²åľ¨": 4112,
      "çļĦéģĹ": 4113,
      "æĮ£æīİ": 4114,
      "åĪĥ": 4115,
      "çĽ¯": 4116,
      "æ¶¯": 4117,
      "å½ĵå¹´": 4118,
      "æ®ĸ": 4119,
      "ä¸Ģè¾Ĩ": 4120,
      "çļĦçŃ": 4121,
      "çīĪ": 4122,
      "é¢Ī": 4123,
      "æµ·æ°´": 4124,
      "éªĹ": 4125,
      "åłª": 4126,
      "èŀįåĮĸ": 4127,
      "èĽĽ": 4128,
      "è§ĴèĲ½": 4129,
      "çĢ": 4130,
      "ä¸Ģä¸Ģ": 4131,
      "åįĪåĲİ": 4132,
      "å®¡": 4133,
      "æº¶": 4134,
      "çļĦåĨ°": 4135,
      "ä¸įéľĢè¦ģ": 4136,
      "èī°": 4137,
      "èµ°çĿĢ": 4138,
      "çª¥": 4139,
      "é»Ħéĩĳ": 4140,
      "12": 4141,
      "éĹ®æĪĳ": 4142,
      "æ¼Ĩé»ĳ": 4143,
      "ä¸įåİ»": 4144,
      "ä»ĸæĺ¯": 4145,
      "èĲ§": 4146,
      "æľĢåĪĿ": 4147,
      "çĵ·": 4148,
      "åŃ¤åįķ": 4149,
      "ç°ĩ": 4150,
      "æĹłè¨Ģ": 4151,
      "æĺŁæľŁ": 4152,
      "çħĮ": 4153,
      "å°ĺåľŁ": 4154,
      "ĺå¾Ĭ": 4155,
      "ç»£": 4156,
      "éĩĮæľī": 4157,
      "åºĵ": 4158,
      "æ±¹": 4159,
      "çļĦç¡": 4160,
      "åĴĻ": 4161,
      "æįı": 4162,
      "èĹıçĿĢ": 4163,
      "æĢĢå¿µ": 4164,
      "å¦»": 4165,
      "å¾ĹæĽ´": 4166,
      "åĸĥ": 4167,
      "åĪ¹": 4168,
      "çļĦå©": 4169,
      "åıĪä¸Ģæ¬¡": 4170,
      "åĵªåĦ¿": 4171,
      "è¾±": 4172,
      "æĥħäºº": 4173,
      "çªĦ": 4174,
      "ä¸ĢåĪĩéĥ½": 4175,
      "éĢıè¿ĩ": 4176,
      "æİłè¿ĩ": 4177,
      "çº±": 4178,
      "è·ª": 4179,
      "è¢«æĪĳ": 4180,
      "ç½¢": 4181,
      "ä¸¾èµ·": 4182,
      "åıĻ": 4183,
      "æ¶¡": 4184,
      "æµ·æ´ĭ": 4185,
      "ä»ĬæĹ¥": 4186,
      "çĿ¡è§ī": 4187,
      "åľ°éĿ¢": 4188,
      "é«ĺå¤Ħ": 4189,
      "æŃ£å¦Ĥ": 4190,
      "éļ¾éģĵ": 4191,
      "å±ķå¼Ģ": 4192,
      "çļĦå§¿åĬ¿": 4193,
      "ï¼ĮâĢľ": 4194,
      "è®©ä»ĸ": 4195,
      "åĴ±": 4196,
      "éĿĴèįī": 4197,
      "å¹³åİŁ": 4198,
      "åı¦å¤ĸ": 4199,
      "åĸĿéħĴ": 4200,
      "å¸½": 4201,
      "åĥıæĪĳ": 4202,
      "èĵ¬": 4203,
      "ç¥Īç¥·": 4204,
      "ä¼Ĳ": 4205,
      "èħ¥": 4206,
      "åıĺåĮĸ": 4207,
      "çļĦå¹³": 4208,
      "æī©": 4209,
      "æŃª": 4210,
      "æ°´éĿ¢": 4211,
      "å¨ľ": 4212,
      "å®ĥåľ¨": 4213,
      "åĵ²": 4214,
      "åĨ°åĩī": 4215,
      "åĢ¾æĸľ": 4216,
      "çļĦåİĨ": 4217,
      "éĤ»å±ħ": 4218,
      "çķĶ": 4219,
      "ä¸ĸä¸Ĭ": 4220,
      "å¥¹åľ¨": 4221,
      "çķı": 4222,
      "ç¥¥": 4223,
      "æµģæ³ª": 4224,
      "æ¼ī": 4225,
      "çļĦå¹»": 4226,
      "èħĲçĥĤ": 4227,
      "ä¸įåı¯èĥ½": 4228,
      "èĢĹ": 4229,
      "å²Ń": 4230,
      "çļĦèĻļ": 4231,
      "æ¡Ĳ": 4232,
      "ä¾µ": 4233,
      "å¤§åľ°ä¸Ĭ": 4234,
      "æ´Ľ": 4235,
      "ä½ıåľ¨": 4236,
      "çļ±çº¹": 4237,
      "çļĦæľĪäº®": 4238,
      "å¾ĺå¾Ĭ": 4239,
      "æ°¸ä¸į": 4240,
      "çľ¸": 4241,
      "æĬĴ": 4242,
      "è¿Ľè¡Į": 4243,
      "èĩªèº«": 4244,
      "åŃ¦æł¡": 4245,
      "åĮĸä¸º": 4246,
      "çĥŃçĪ±": 4247,
      "åĩ¤": 4248,
      "åĨ¥": 4249,
      "ç©ºæĹ·": 4250,
      "éĿŀå¸¸": 4251,
      "åģĩå¦Ĥ": 4252,
      "æļ®èī²": 4253,
      "ä¸Ģå°ı": 4254,
      "å¤ļä½Ļ": 4255,
      "çļĦåĽĽ": 4256,
      "è¾ľ": 4257,
      "æĪĲéķ¿": 4258,
      "å¯¹æĪĳ": 4259,
      "çģ¯çģ«": 4260,
      "åĪ°æĪĳ": 4261,
      "ä½³": 4262,
      "å®´": 4263,
      "åĳľ": 4264,
      "çļĦç¾½": 4265,
      "è¿ĶåĽŀ": 4266,
      "çļĦé¥": 4267,
      "éĩįéĩı": 4268,
      "ä¸ľæĸ¹": 4269,
      "è¡Ģæ¶²": 4270,
      "çļĦèĬĤ": 4271,
      "åį±éĻ©": 4272,
      "çļĦç»¿": 4273,
      "åĭĥ": 4274,
      "æĢ¯": 4275,
      "åĽĽåĳ¨": 4276,
      "ä¸įè¿ĩæĺ¯": 4277,
      "çļĦé»Ħæĺı": 4278,
      "çļĦè¶": 4279,
      "èĸĩ": 4280,
      "èįĴåĩī": 4281,
      "æĦ¤æĢĴ": 4282,
      "çļĦåŃ£èĬĤ": 4283,
      "åħļ": 4284,
      "ä½łæĪĳ": 4285,
      "èĬ¬": 4286,
      "ä¸ĢçĤ¹çĤ¹": 4287,
      "çļĦç¥ĸ": 4288,
      "çĸ²åĢ¦": 4289,
      "èµ¤è£¸": 4290,
      "åĲ±": 4291,
      "æľīå¤ļ": 4292,
      "æºĥ": 4293,
      "çļĦæł¹": 4294,
      "çļĦéĴŁ": 4295,
      "æĺŁç©º": 4296,
      "æ±ŁåįĹ": 4297,
      "æŀĿå¤´": 4298,
      "å°¤": 4299,
      "çļĦæĳ": 4300,
      "ç§įåŃĲ": 4301,
      "å¤±åİ»äºĨ": 4302,
      "ç±į": 4303,
      "é¹¤": 4304,
      "èļĢ": 4305,
      "è°±": 4306,
      "åĿĽ": 4307,
      "çĤ¹åĦ¿": 4308,
      "åĺ¶": 4309,
      "ç´«é¹ĥ": 4310,
      "æľ¦": 4311,
      "å¥¥": 4312,
      "è§ħ": 4313,
      "èĩŃ": 4314,
      "æĹłåĬĽ": 4315,
      "åĥµ": 4316,
      "åĲĳåīį": 4317,
      "æŀľå®ŀ": 4318,
      "çļĦæ¨¡": 4319,
      "åĲ¼": 4320,
      "ä¸ĭä¸Ģ": 4321,
      "çŃ¾": 4322,
      "è¯Ħ": 4323,
      "æ°´éĩĮ": 4324,
      "å°ĸåı«": 4325,
      "çļĦéķľ": 4326,
      "è°£": 4327,
      "èĤĥ": 4328,
      "è¶ģ": 4329,
      "æ¢¦å¢ĥ": 4330,
      "ç«ĻçĿĢ": 4331,
      "çĪ¬ä¸Ĭ": 4332,
      "éķ¿ä¹ħ": 4333,
      "éļıæĹ¶": 4334,
      "æĬĵä½ı": 4335,
      "åľ¨å¥¹": 4336,
      "åĩºåıĳ": 4337,
      "çļĦåºĬ": 4338,
      "çĶŁåŃĺ": 4339,
      "å¤įæ´»": 4340,
      "çº¤": 4341,
      "åĺ´åĶĩ": 4342,
      "ä¸ĢæĹ¥": 4343,
      "çļĦéŀ": 4344,
      "è¾©": 4345,
      "çĶ·åŃ©": 4346,
      "è¡°èĢģ": 4347,
      "çĭĲ": 4348,
      "éĵ¾": 4349,
      "ä¿¡ä»°": 4350,
      "ä¹ĿæľĪ": 4351,
      "è¤ª": 4352,
      "ä¹ŀ": 4353,
      "æĥ³è¦ģ": 4354,
      "å¹¶æ²¡æľī": 4355,
      "çļĦèº¯": 4356,
      "çļĦæµª": 4357,
      "èµł": 4358,
      "éĤ£å¹´": 4359,
      "èĥĥ": 4360,
      "æĲħ": 4361,
      "æ¸¸æĪı": 4362,
      "çļĦæķħä¹¡": 4363,
      "çļĦæ²īé»ĺ": 4364,
      "çĽĹ": 4365,
      "åĽŀçŃĶ": 4366,
      "çªĥ": 4367,
      "çļĦæĢĿæĥ³": 4368,
      "æĪĴ": 4369,
      "è¿ľåİ»": 4370,
      "è°Īè®º": 4371,
      "é»¯": 4372,
      "èĪħ": 4373,
      "æıī": 4374,
      "éŃĦ": 4375,
      "çļĦéĿĴæĺ¥": 4376,
      "11": 4377,
      "è¾ĵ": 4378,
      "èĦĸ": 4379,
      "ç¨¼": 4380,
      "èĴ²": 4381,
      "ä¼į": 4382,
      "å±¿": 4383,
      "èĪĶ": 4384,
      "éĻ·åħ¥": 4385,
      "çļĦæ¬²æľĽ": 4386,
      "å§Ķ": 4387,
      "ä½łä¹Ł": 4388,
      "åĽĬ": 4389,
      "æĪĳè¢«": 4390,
      "å°¸ä½ĵ": 4391,
      "çļĦæ¹ĸ": 4392,
      "çļĦæ®ĭ": 4393,
      "æĪĳåıªæĺ¯": 4394,
      "åĲ´": 4395,
      "ä¸įå¤ļ": 4396,
      "å°ıæĹ¶åĢĻ": 4397,
      "æ³³": 4398,
      "èĩªè¡Įè½¦": 4399,
      "æľĪèī²": 4400,
      "æĢĿèĢĥ": 4401,
      "èĵĿå¤©": 4402,
      "æŀ¯èĲİ": 4403,
      "çļĦæŁĲ": 4404,
      "çĭŃ": 4405,
      "æŃ£æĺ¯": 4406,
      "éĢ¸": 4407,
      "è¾£": 4408,
      "èĬ±çĵ£": 4409,
      "çķª": 4410,
      "éĴĵ": 4411,
      "çļĦç¨": 4412,
      "æĥļ": 4413,
      "ä¸Ńå¤®": 4414,
      "åĮ¿": 4415,
      "èįĨ": 4416,
      "æĪĳä¸įèĥ½": 4417,
      "å¤§å£°": 4418,
      "åĩºä¸Ģ": 4419,
      "äºĭå®ŀ": 4420,
      "çªĹåı£": 4421,
      "å¤ıæĹ¥": 4422,
      "è§¦æĳ¸": 4423,
      "å¦Ĩ": 4424,
      "ç²¹": 4425,
      "åĩłå¤©": 4426,
      "åģ·åģ·": 4427,
      "è¯¦": 4428,
      "æīĭéĩĮ": 4429,
      "éĤ£åĦ¿": 4430,
      "æ¬ł": 4431,
      "çļĦè§Ĩ": 4432,
      "çļĦæĻļ": 4433,
      "æ±¹æ¶Į": 4434,
      "æĪĳèĥ½": 4435,
      "åľ°çĭ±": 4436,
      "æ²¡äºº": 4437,
      "æĦ§": 4438,
      "ä¹ĭä¸Ģ": 4439,
      "æĥĬéĨĴ": 4440,
      "åĮ»çĶŁ": 4441,
      "è¡į": 4442,
      "è±ª": 4443,
      "çļĦå¼Ģ": 4444,
      "æĤ¯": 4445,
      "ç»ĥä¹ł": 4446,
      "çļĦå¹¸ç¦ı": 4447,
      "æīĢè°ĵ": 4448,
      "çŃĭ": 4449,
      "çļĦçĹħ": 4450,
      "ä¼ģ": 4451,
      "å¤´é¢ħ": 4452,
      "è¶³ä»¥": 4453,
      "äºĭåĦ¿": 4454,
      "çļĦåĺ´åĶĩ": 4455,
      "ç§ĥ": 4456,
      "çĶ¨æĿ¥": 4457,
      "åĲĮäºĭ": 4458,
      "æ³¨è§Ĩ": 4459,
      "ç¯®": 4460,
      "åĩĿè§Ĩ": 4461,
      "çļĦæ³ªæ°´": 4462,
      "ä¸Ģä¸ªå¥³äºº": 4463,
      "éĥ½æ²¡æľī": 4464,
      "ä¼ļæľī": 4465,
      "æģ¼": 4466,
      "é¸Łé¸£": 4467,
      "åĹħ": 4468,
      "éŁµ": 4469,
      "çļĦåıĳ": 4470,
      "çļĦä¸¤": 4471,
      "èĢĮåĩº": 4472,
      "çķħ": 4473,
      "ç²ĺ": 4474,
      "å¸Ĥåľº": 4475,
      "åµ": 4476,
      "çļĦèļ": 4477,
      "èĤĮ": 4478,
      "èĳ¡èĲĦ": 4479,
      "æĮģç»Ń": 4480,
      "çļĦéª¨å¤´": 4481,
      "çļĦæĹł": 4482,
      "å¾ª": 4483,
      "æĭŁ": 4484,
      "éĿĻæŃ¢": 4485,
      "æ£Ģ": 4486,
      "çŃīçĿĢ": 4487,
      "æ¬¢ä¹Ĳ": 4488,
      "åĶ±æŃĮ": 4489,
      "å¢Ļå£ģ": 4490,
      "çļĦè¯Ĺäºº": 4491,
      "äºĨä¸ª": 4492,
      "æĥ¨": 4493,
      "çļĦèĤīä½ĵ": 4494,
      "éĿ©åĳ½": 4495,
      "ç©Ĩ": 4496,
      "åĶī": 4497,
      "æ·±åħ¥": 4498,
      "å¹³çº¿": 4499,
      "çŀ§": 4500,
      "åĤ»": 4501,
      "çļĦè¡¨æĥħ": 4502,
      "ä¸įå®ļ": 4503,
      "çļĦèı": 4504,
      "åĴĭ": 4505,
      "å¸Ĩ": 4506,
      "åīĬ": 4507,
      "èĩ³äºİ": 4508,
      "çīĻé½¿": 4509,
      "äº«åıĹ": 4510,
      "ç¤¾ä¼ļ": 4511,
      "çļĦæĸĩåŃĹ": 4512,
      "è¡¡": 4513,
      "åı¯æĢľ": 4514,
      "æ·»": 4515,
      "ç¢Į": 4516,
      "å¥³åŃĲ": 4517,
      "æĦıæĢĿ": 4518,
      "ģæľĪ": 4519,
      "åħ®": 4520,
      "èºģ": 4521,
      "å®īåħ¨": 4522,
      "è®¤ä¸º": 4523,
      "å²©çŁ³": 4524,
      "æĽ¼": 4525,
      "æİ¨å¼Ģ": 4526,
      "çļĦå¯Ĵ": 4527,
      "æĪĪ": 4528,
      "é©³": 4529,
      "è°ģèĥ½": 4530,
      "èģĮ": 4531,
      "çļĦåİĨåı²": 4532,
      "äº¿": 4533,
      "çļĦè±": 4534,
      "æĦī": 4535,
      "å¿ĥèĦı": 4536,
      "æ¸ħæ¾Ī": 4537,
      "æĺ¨æĹ¥": 4538,
      "çļĦåı¶åŃĲ": 4539,
      "çļĦçħ": 4540,
      "ä¸įå¼Ģ": 4541,
      "é¡½": 4542,
      "æ²³è¾¹": 4543,
      "ç«ŁçĦ¶": 4544,
      "åĢ¼å¾Ĺ": 4545,
      "ä¸Ģäºº": 4546,
      "æ²Ī": 4547,
      "çľĭæĪĳ": 4548,
      "åĲĳä¸Ĭ": 4549,
      "ç¾İäºº": 4550,
      "ç¬¬ä¸ī": 4551,
      "çī¹åĪ«": 4552,
      "çĶ©": 4553,
      "ç»ĺ": 4554,
      "ä»£è¡¨": 4555,
      "åį¸": 4556,
      "æ²¦": 4557,
      "éģĵä¸Ĭ": 4558,
      "èĥ§": 4559,
      "åŁĭèĳ¬": 4560,
      "ä¸Ģçľ¼": 4561,
      "ç»¸": 4562,
      "åĿĩ": 4563,
      "æŃĮå£°": 4564,
      "æ¨±": 4565,
      "è¿·å¤±": 4566,
      "ä¸ĥæľĪ": 4567,
      "é¡ºçĿĢ": 4568,
      "çļĦèĪ¹": 4569,
      "çļĦç´": 4570,
      "èµĸ": 4571,
      "çļĦéĥ½": 4572,
      "æł½": 4573,
      "çİ°ä»£": 4574,
      "å®ŀåľ¨": 4575,
      "åĨĻä½ľ": 4576,
      "çļĦåľŁåľ°": 4577,
      "æľīä¸ª": 4578,
      "åĽĽå¤Ħ": 4579,
      "çľĭè§ģäºĨ": 4580,
      "äº¤è°Ī": 4581,
      "åĳ¼åĶ¤": 4582,
      "éĺħè¯»": 4583,
      "æĬĢ": 4584,
      "çĶŁæŃ»": 4585,
      "æ³Ħ": 4586,
      "èĤ¿": 4587,
      "é¥¼": 4588,
      "äºĨä¸Ģä¸ĭ": 4589,
      "è¡¨è¾¾": 4590,
      "èŀº": 4591,
      "å¿įåıĹ": 4592,
      "13": 4593,
      "ä¸Ģå¤§": 4594,
      "æĺ§": 4595,
      "åįķä½į": 4596,
      "çļĦå¾®ç¬ĳ": 4597,
      "çļĦé²": 4598,
      "ä¸ŃåįĪ": 4599,
      "åħīéĺ´": 4600,
      "ç¾¤å±±": 4601,
      "çĨ¬": 4602,
      "çļĦè¯į": 4603,
      "åıī": 4604,
      "çİĩ": 4605,
      "éĶ¦": 4606,
      "æİĺ": 4607,
      "æŁľ": 4608,
      "åķ¼": 4609,
      "åĲĥé¥Ń": 4610,
      "èĭ¦éļ¾": 4611,
      "çļĦåĨħå¿ĥ": 4612,
      "æĪĳæīĢ": 4613,
      "çľ¼éĩĮ": 4614,
      "åĶ¤éĨĴ": 4615,
      "çİīç±³": 4616,
      "çļĦåŃ¤çĭ¬": 4617,
      "ä¸ĢçĽı": 4618,
      "ä¸Ģæłª": 4619,
      "çļĦçĵ": 4620,
      "å·²è¢«": 4621,
      "çĤ¹çĤ¹": 4622,
      "æĳĩæĽ³": 4623,
      "æ³¨æĦı": 4624,
      "çļĦéĥ¨åĪĨ": 4625,
      "çļĦæ½": 4626,
      "ç»Ļä»ĸ": 4627,
      "äº¤æį¢": 4628,
      "çľ©": 4629,
      "åİ¨": 4630,
      "éĩĳèī²": 4631,
      "åĵįèµ·": 4632,
      "çļĦçĽ¸": 4633,
      "200": 4634,
      "çģ°èī²": 4635,
      "çļĦèĤ©": 4636,
      "åĴ³åĹ½": 4637,
      "çļĦåĦ¿åŃĲ": 4638,
      "æ¢Ń": 4639,
      "éĿĻéĿĻåľ°": 4640,
      "ä¸įçĿĢ": 4641,
      "ç»ĳ": 4642,
      "æķĪ": 4643,
      "çļĦå²ģæľĪ": 4644,
      "èĢķ": 4645,
      "çļĦç¤": 4646,
      "è¡¨æĥħ": 4647,
      "Ġä½ł": 4648,
      "åĪĳ": 4649,
      "çļĦæº": 4650,
      "ä¸Ĭç©º": 4651,
      "æ¸¯": 4652,
      "æ²¡æľīä»Ģä¹Ī": 4653,
      "ç¼¸": 4654,
      "è½»æĺĵ": 4655,
      "è¿ĩåİ»äºĨ": 4656,
      "åľ¨é£İä¸Ń": 4657,
      "çļĦç®": 4658,
      "èĢĮåıĪ": 4659,
      "æľ¬èº«": 4660,
      "æĭ¥æĮ¤": 4661,
      "å¤¸": 4662,
      "èĢ¸": 4663,
      "æĸ¤": 4664,
      "ç»ĻäºĨ": 4665,
      "åįģåŃĹ": 4666,
      "çļĦå¥³åĦ¿": 4667,
      "æī®": 4668,
      "çľĭä½ł": 4669,
      "ä¼ļåľ¨": 4670,
      "èĻļæŀĦ": 4671,
      "åĬĪ": 4672,
      "æĹ¥å¤ľ": 4673,
      "çŃĴ": 4674,
      "æĺŁè¾°": 4675,
      "èĩ³ä»Ĭ": 4676,
      "æ£µæłĳ": 4677,
      "åĥıä¸ª": 4678,
      "çļĦèĦĳ": 4679,
      "èļĬ": 4680,
      "çļĦå¤ĸ": 4681,
      "æľīè¿ĩ": 4682,
      "æľīå¤ļå°ĳ": 4683,
      "çĲĨæĥ³": 4684,
      "ä¸ĢåĮ¹": 4685,
      "èħ»": 4686,
      "ä¹¡æĦģ": 4687,
      "è·ŁæĪĳ": 4688,
      "çºªå¿µ": 4689,
      "çļĦåĩº": 4690,
      "åįľ": 4691,
      "èµ·èº«": 4692,
      "å»ºçŃĳ": 4693,
      "åľ¨å¤©": 4694,
      "èµ´": 4695,
      "å°±æĺ¯ä¸Ģ": 4696,
      "ç©ºçĻ½": 4697,
      "ç¬¨": 4698,
      "åĶ¯æľī": 4699,
      "µ®": 4700,
      "èĢ¶": 4701,
      "é£ŀè¡Į": 4702,
      "ç»Ŀå¯¹": 4703,
      "é²ľèĬ±": 4704,
      "çļĦç»Ĩ": 4705,
      "çļĦç¦": 4706,
      "æĹłå°½": 4707,
      "çļĦç¢İ": 4708,
      "åįµ": 4709,
      "äºĽä»Ģä¹Ī": 4710,
      "èĪĮå¤´": 4711,
      "åľ¨åľ°": 4712,
      "æ³¼": 4713,
      "é«ĺåİŁ": 4714,
      "çļĦè¢": 4715,
      "åĴķ": 4716,
      "åıªå¥½": 4717,
      "æ²¡äºĨ": 4718,
      "ä»ĬæĻļ": 4719,
      "èį¡èį¡": 4720,
      "äº²åĲ»": 4721,
      "é©¾": 4722,
      "åĽĽåŃ£": 4723,
      "çļĦç¾Ĭ": 4724,
      "çļĦéº¦": 4725,
      "ç»Ĵ": 4726,
      "å°ıéķĩ": 4727,
      "èĢĮä¸į": 4728,
      "èĲ½åľ°": 4729,
      "éĥĬ": 4730,
      "æł¹æľ¬": 4731,
      "çħ§èĢĢ": 4732,
      "èı©": 4733,
      "æĻĥåĬ¨": 4734,
      "æĮ¯": 4735,
      "éĹŃä¸Ĭ": 4736,
      "ä¸Ģå¯¹": 4737,
      "è´¯": 4738,
      "çļĦèĪĮ": 4739,
      "çļĦèĥĮå½±": 4740,
      "ä¹Łè¦ģ": 4741,
      "çªľ": 4742,
      "å·¦åı³": 4743,
      "é¢Ĭ": 4744,
      "æŃ»èĢħ": 4745,
      "æ¡Ĥ": 4746,
      "æĿ¿ä¸Ĭ": 4747,
      "åĳĬè¯īä½ł": 4748,
      "çļĦéģĵè·¯": 4749,
      "å¦Ħ": 4750,
      "æĪĳä»¬æĺ¯": 4751,
      "çļĦäººç¾¤": 4752,
      "åĻ¬": 4753,
      "å¥¶å¥¶": 4754,
      "çļĦéĢŁ": 4755,
      "çļĦæŃ»äº¡": 4756,
      "ä½łçŁ¥éģĵ": 4757,
      "åŃĲå¼¹": 4758,
      "é¸½åŃĲ": 4759,
      "çªĹåīį": 4760,
      "èĩ³å°ĳ": 4761,
      "æī¿åıĹ": 4762,
      "èľľèľĤ": 4763,
      "æľ¦èĥ§": 4764,
      "ĦåĤ²": 4765,
      "æµİ": 4766,
      "æĹłæ¯Ķ": 4767,
      "éĥ½è¦ģ": 4768,
      "èĵĦ": 4769,
      "çļĦçĸ¼": 4770,
      "å¥ī": 4771,
      "åĴ¸": 4772,
      "èħĬ": 4773,
      "åı«å£°": 4774,
      "ä¼¼çļĦ": 4775,
      "çļĦéĿ¢åŃĶ": 4776,
      "çļĦèī²": 4777,
      "æķŀå¼Ģ": 4778,
      "ä½ķå¤Ħ": 4779,
      "æĸĩæĺİ": 4780,
      "æĤ²åĵĢ": 4781,
      "çļĦç¬Ķ": 4782,
      "èķ¾": 4783,
      "éĤ£è¾¹": 4784,
      "åĿĹéĴ±": 4785,
      "è¡Ĺå¤´": 4786,
      "éĺ³åħīä¸ĭ": 4787,
      "è·³è·ĥ": 4788,
      "ç¡®å®ļ": 4789,
      "è¯±æĥĳ": 4790,
      "çĿ¹": 4791,
      "æĭ³": 4792,
      "çĪ½": 4793,
      "å¥½å¥½": 4794,
      "çļĦæ±Ł": 4795,
      "çļĦæŃĮå£°": 4796,
      "ä¸įæĩĤ": 4797,
      "å®Ľ": 4798,
      "éĻµ": 4799,
      "å±±é¡¶": 4800,
      "ç©¿éĢı": 4801,
      "çļĦå¿ĥèĦı": 4802,
      "å¨ĩ": 4803,
      "åĭ¤": 4804,
      "çŃĿ": 4805,
      "éľ²æ°´": 4806,
      "èĪŀè¹Ī": 4807,
      "çļĦä¼¤": 4808,
      "èµĲ": 4809,
      "è¿ĩæĪĳ": 4810,
      "çĤĬçĥŁ": 4811,
      "å¯¹æĸ¹": 4812,
      "åı£ç½©": 4813,
      "çłĶ": 4814,
      "ä½¿çĶ¨": 4815,
      "èģĨ": 4816,
      "å³¡": 4817,
      "æĪĳä¸įæĺ¯": 4818,
      "åľ¨åľ°ä¸Ĭ": 4819,
      "é©¼": 4820,
      "éĵŃ": 4821,
      "è±¹": 4822,
      "çĪ±ä¸Ĭ": 4823,
      "é»Ħæ²³": 4824,
      "éĤ£æĿ¡": 4825,
      "è¢į": 4826,
      "å¾Īè¿ľ": 4827,
      "çħ¤": 4828,
      "æķ£åıĳ": 4829,
      "åĸĦèī¯": 4830,
      "æĦļ": 4831,
      "è¢«äºº": 4832,
      "å§¨": 4833,
      "æľºä¼ļ": 4834,
      "¤éħĴ": 4835,
      "çļĦæĹ©æĻ¨": 4836,
      "ä¸įæĦ¿": 4837,
      "åĵŁ": 4838,
      "è®°ä½ı": 4839,
      "é¹Ĭ": 4840,
      "èĽ®": 4841,
      "èº«ä½ĵéĩĮ": 4842,
      "èł¢": 4843,
      "é©»": 4844,
      "ä½ķæĹ¶": 4845,
      "ç¨¿": 4846,
      "æºº": 4847,
      "èī²å½©": 4848,
      "æ·±æ¸Ĭ": 4849,
      "ç¬¬ä¸Ģ": 4850,
      "çļĦç§įåŃĲ": 4851,
      "å®īæİĴ": 4852,
      "è·³èĪŀ": 4853,
      "æļ´éĽ¨": 4854,
      "èĶļ": 4855,
      "ä¸ĬåįĪ": 4856,
      "å¼ĵ": 4857,
      "åĳĲ": 4858,
      "çĪ±äºº": 4859,
      "éªļ": 4860,
      "åĬĽéĩı": 4861,
      "çļĦåįģ": 4862,
      "çļĦåĵŃ": 4863,
      "æĸ§": 4864,
      "ä¹Łåı¯ä»¥": 4865,
      "åĥıä¸Ģåıª": 4866,
      "æľĢè¿ĳ": 4867,
      "é¦¨": 4868,
      "åı¥åŃĲ": 4869,
      "èĭįèĮ«": 4870,
      "çļĦæ¯Ľ": 4871,
      "æĪĳåĿĲåľ¨": 4872,
      "æĺ¯ä¸į": 4873,
      "äººå®¶": 4874,
      "äººä¸ĸ": 4875,
      "çļĦé¡": 4876,
      "é«ĺåħ´": 4877,
      "ç¿©": 4878,
      "çļĦæĹ¥": 4879,
      "æĪĳå¿ĥ": 4880,
      "è¿ĩäºİ": 4881,
      "åĲĮåŃ¦": 4882,
      "çļĦå¢ĵ": 4883,
      "åıĳåħī": 4884,
      "èĤĨ": 4885,
      "æ¸ħéĨĴ": 4886,
      "èľ¡": 4887,
      "çľĭåĪ°äºĨ": 4888,
      "çļĦçİ°": 4889,
      "ä»ĭ": 4890,
      "éĤ®": 4891,
      "ä¹Łä¸įèĥ½": 4892,
      "å§ľ": 4893,
      "æı£": 4894,
      "çĶµèĦĳ": 4895,
      "çļĦå¹½": 4896,
      "çļĦéĤ£ä¸ª": 4897,
      "çļĦéĹª": 4898,
      "é¥±æ»¡": 4899,
      "çĿĢä¸Ģä¸ª": 4900,
      "ä¸ªåĦ¿": 4901,
      "éĹ¯": 4902,
      "åĩĮæĻ¨": 4903,
      "çļĦæľĪåħī": 4904,
      "ç¬ĳäºĨ": 4905,
      "åı³æīĭ": 4906,
      "åľ¨æŃ¤": 4907,
      "èµ°è·¯": 4908,
      "æ¬§": 4909,
      "åģľåľ¨": 4910,
      "è¸¢": 4911,
      "çļĦéĵ¶": 4912,
      "çļĦæĦıä¹ī": 4913,
      "æĪĳä¸ĢçĽ´": 4914,
      "èĲ¤": 4915,
      "çľ¼ç¥ŀ": 4916,
      "åįģåħ«": 4917,
      "åĲ¾": 4918,
      "ç»ľ": 4919,
      "çĿĢçļĦ": 4920,
      "çľĭä¸įåĪ°": 4921,
      "è§£éĩĬ": 4922,
      "å©´åĦ¿": 4923,
      "æ³¢æµª": 4924,
      "ä¸ĬçıŃ": 4925,
      "çļĦèĳ": 4926,
      "èĿĩ": 4927,
      "åİĮåĢ¦": 4928,
      "èªĵ": 4929,
      "çµ®": 4930,
      "äºİåĨĽ": 4931,
      "å²³": 4932,
      "æįŀ": 4933,
      "åºŁå¢Ł": 4934,
      "æĻºæħ§": 4935,
      "åĳĪçİ°": 4936,
      "çļĦç»ĵ": 4937,
      "ä¸ĢåĪ»": 4938,
      "å¿Į": 4939,
      "ä¹ĭåľ°": 4940,
      "åķĥ": 4941,
      "è±«": 4942,
      "éļĲèĹı": 4943,
      "æķĻåłĤ": 4944,
      "çļĦçİ»çĴĥ": 4945,
      "çº¯ç²¹": 4946,
      "æģįæĥļ": 4947,
      "è°İè¨Ģ": 4948,
      "çŁ¿": 4949,
      "å¹´ä»£": 4950,
      "åĿĳ": 4951,
      "åıĪä¸Ģ": 4952,
      "çļĦéĢŁåº¦": 4953,
      "çĪª": 4954,
      "åįģäºĶ": 4955,
      "åı°æ¹¾": 4956,
      "è½®åĽŀ": 4957,
      "æĿ¨äºİåĨĽ": 4958,
      "èİ«åĲį": 4959,
      "æĪĳæīį": 4960,
      "è¡Ķ": 4961,
      "å¿ĥæĥħ": 4962,
      "éĥĳ": 4963,
      "èİ¹": 4964,
      "ä¸«": 4965,
      "å®¾": 4966,
      "èľ·": 4967,
      "æī¿è®¤": 4968,
      "çļĦæ°Ķåĳ³": 4969,
      "æĪĳæĹłæ³ķ": 4970,
      "éĤ£å°±": 4971,
      "äº²çĪ±": 4972,
      "èĴĤ": 4973,
      "æ¤ħåŃĲ": 4974,
      "èģĨåĲ¬": 4975,
      "èĺ": 4976,
      "çļĦä½ĵ": 4977,
      "ç©¹": 4978,
      "ç©Ĺ": 4979,
      "æįĨ": 4980,
      "å´ĩ": 4981,
      "èĨľ": 4982,
      "ä¸įæĹ¶": 4983,
      "éĴ¥åĮĻ": 4984,
      "åħ¨èº«": 4985,
      "çļĦå·¨": 4986,
      "çĽĳ": 4987,
      "å¤§éĽ¨": 4988,
      "æĹłå¤Ħ": 4989,
      "è¢ħ": 4990,
      "åıĳèĬ½": 4991,
      "çļĦå¿ĥæĥħ": 4992,
      "å¿ħçĦ¶": 4993,
      "çļĦçīĻ": 4994,
      "åľ¨ç©ºä¸Ń": 4995,
      "æ³°": 4996,
      "ç¬ĳçĿĢ": 4997,
      "èįĴèĬľ": 4998,
      "æ¨¡ä»¿": 4999,
      "çľºæľĽ": 5000,
      "åıªæĺ¯ä¸Ģ": 5001,
      "è¾ĳ": 5002,
      "æŃ»åľ¨": 5003,
      "æĦıåĳ³": 5004,
      "åįĬå¤ľ": 5005,
      "åħ¬è·¯": 5006,
      "çĽĺæĹĭ": 5007,
      "14": 5008,
      "åĩºçļĦ": 5009,
      "åı¯çĪ±": 5010,
      "çĻ½æĺ¼": 5011,
      "éª¼": 5012,
      "æ¿Ģæĥħ": 5013,
      "çļĦæģĲ": 5014,
      "ç«Ń": 5015,
      "å±±åĿ¡": 5016,
      "èį¡æ¼¾": 5017,
      "èĦĨå¼±": 5018,
      "ĺèĽĽ": 5019,
      "éĩĳå±ŀ": 5020,
      "è°·éĽ¨": 5021,
      "»åĲŁ": 5022,
      "åľ¨å®ĥ": 5023,
      "çļĦåķ": 5024,
      "çĿĢä»ĸ": 5025,
      "æ°ı": 5026,
      "éĤ¦": 5027,
      "åĲ¬è¯´": 5028,
      "ä¸ĩéĩĮ": 5029,
      "åıĮçľ¼": 5030,
      "çļĦèĩªå·±": 5031,
      "ä¸Ģèº«": 5032,
      "æ¡Ĩ": 5033,
      "éĹ¨å¤ĸ": 5034,
      "èģª": 5035,
      "ç»Ĩç»Ĩ": 5036,
      "æ¼Ĥæµ®": 5037,
      "åħ´å¥ĭ": 5038,
      "å±¥": 5039,
      "çļĦçľ¼æ³ª": 5040,
      "æ¹ĸæ°´": 5041,
      "åĺ´éĩĮ": 5042,
      "åįĳå¾®": 5043,
      "ä¸ĢåłĨ": 5044,
      "çļĦé¹": 5045,
      "å¸ľ": 5046,
      "æĹłå½¢": 5047,
      "åĿĢ": 5048,
      "é¡¹": 5049,
      "éľį": 5050,
      "è½»çĽĪ": 5051,
      "çĽ´æİ¥": 5052,
      "ä½ľåĵį": 5053,
      "é©¬è·¯": 5054,
      "åħ¨éĥ½": 5055,
      "çº¯æ´ģ": 5056,
      "çļĦæĺ¥": 5057,
      "çĿ«": 5058,
      "çļĦå»": 5059,
      "ä¿Ĭ": 5060,
      "åı¥è¯Ŀ": 5061,
      "ç¯±": 5062,
      "çļĦåĩł": 5063,
      "æ½Ń": 5064,
      "å¿½çķ¥": 5065,
      "éŁ©": 5066,
      "æ©ĺ": 5067,
      "çļĦéļĲ": 5068,
      "å°±åı¯ä»¥": 5069,
      "èĢģèĻİ": 5070,
      "æľºåĻ¨": 5071,
      "æ¦Ĥ": 5072,
      "åĬŀåħ¬": 5073,
      "å¤§äºº": 5074,
      "æŃ£å¥½": 5075,
      "çļĦæĥĬ": 5076,
      "è½»è½»åľ°": 5077,
      "çĪ·çĪ·": 5078,
      "çļĦèħ°": 5079,
      "æĪĳæ²¡": 5080,
      "æĪĳçļĦæīĭ": 5081,
      "çĿĢèĩªå·±": 5082,
      "è¢«ä½ł": 5083,
      "éľ¾": 5084,
      "æ£Ĵ": 5085,
      "ä¼¤å¿ĥ": 5086,
      "æľīäººåľ¨": 5087,
      "èĦĳè¢ĭ": 5088,
      "çļĦçĹĽèĭ¦": 5089,
      "çļĦæľĭåıĭ": 5090,
      "æĪĳåİ»": 5091,
      "æ°´æ³¥": 5092,
      "ç¦ħ": 5093,
      "åħ«æľĪ": 5094,
      "æĪĳåį´": 5095,
      "å¤ļäºĨ": 5096,
      "é£İå£°": 5097,
      "çĹĴ": 5098,
      "åĩłåıª": 5099,
      "åĹ¡": 5100,
      "çļĦæĻ¯": 5101,
      "ä¼ļä¸įä¼ļ": 5102,
      "ç©ºèĻļ": 5103,
      "ä»ĬçĶŁ": 5104,
      "æĲľ": 5105,
      "æ²Ļæ»©": 5106,
      "çļĦéĹ®é¢ĺ": 5107,
      "å¾Ĺå¤ª": 5108,
      "éĢļå¾Ģ": 5109,
      "åħŃæľĪ": 5110,
      "äº§çĶŁ": 5111,
      "çļĦæ¨¡æł·": 5112,
      "ä¸ĢåĨį": 5113,
      "æĿ¥åĽŀ": 5114,
      "åħīä¸Ń": 5115,
      "èĥĮä¸Ĭ": 5116,
      "çļĦç©ºéĹ´": 5117,
      "è¿ĻåĦ¿": 5118,
      "ç§Ł": 5119,
      "èĦĤ": 5120,
      "èĲ½ä¸ĭæĿ¥": 5121,
      "ä»ĸä»¬åľ¨": 5122,
      "æĶ¶åī²": 5123,
      "å¸ĥæ»¡": 5124,
      "å¼Ĥä¹¡": 5125,
      "åĴĢ": 5126,
      "çĽĬ": 5127,
      "åı°éĺ¶": 5128,
      "æıĲåīį": 5129,
      "å¸Ĳ": 5130,
      "é¸¿": 5131,
      "åħ³å¿ĥ": 5132,
      "æĿ¯åŃĲ": 5133,
      "åĪĹè½¦": 5134,
      "ä½łåı¯ä»¥": 5135,
      "çļĦæ¿Ģ": 5136,
      "è¿ĻæĿ¡": 5137,
      "é»Ħèī²": 5138,
      "è¿ĲåĬ¨": 5139,
      "çļĦçİ«çĳ°": 5140,
      "åľ¨åĵªéĩĮ": 5141,
      "åıªæľīä¸Ģ": 5142,
      "éĻĭ": 5143,
      "å£°ä¸Ń": 5144,
      "å¤ªå¹³": 5145,
      "çħ§çīĩ": 5146,
      "åĮħè£¹": 5147,
      "äºĨåĲĹ": 5148,
      "åįı": 5149,
      "åĵ¨": 5150,
      "éķ¿å®ī": 5151,
      "éĶĢ": 5152,
      "æ¸ħæĺİ": 5153,
      "æľ¬æĿ¥": 5154,
      "æĹĹå¸ľ": 5155,
      "çļĦå¿§ä¼¤": 5156,
      "çļĦä½įç½®": 5157,
      "æĪĳåĲ¬è§ģ": 5158,
      "è¶´": 5159,
      "æ´»åľ¨": 5160,
      "çĶ·åŃĲ": 5161,
      "æĤ¬å´ĸ": 5162,
      "æļĤæĹ¶": 5163,
      "ä¼ĳæģ¯": 5164,
      "ä»ħä»ħæĺ¯": 5165,
      "çļĦåĪĢ": 5166,
      "ä½łè¿ĺ": 5167,
      "èĢģå®¶": 5168,
      "æµªèĬ±": 5169,
      "åĩĿåĽº": 5170,
      "ä¸¢å¤±": 5171,
      "çļĦæĥ³è±¡": 5172,
      "çļĦçĶ»": 5173,
      "éĽªçĻ½": 5174,
      "åįĬä¸ª": 5175,
      "èĨĿ": 5176,
      "æ¼Ĥæ³Ĭ": 5177,
      "èŃ¬": 5178,
      "æ¯ģçģŃ": 5179,
      "å±ģèĤ¡": 5180,
      "ä¸Ģå®¶": 5181,
      "çļĦæ¥": 5182,
      "åĵ¼": 5183,
      "åķĦ": 5184,
      "æıŃ": 5185,
      "çļĦæĹ¶ä»£": 5186,
      "éŃģ": 5187,
      "æıĲéĨĴ": 5188,
      "ä¼¸æīĭ": 5189,
      "åĩĮäºĳ": 5190,
      "åħľ": 5191,
      "åĲĳçĿĢ": 5192,
      "é»ĳçĻ½": 5193,
      "é£ŀé¸Ł": 5194,
      "æ¶Īæģ¯": 5195,
      "åħ±åĲĮ": 5196,
      "çļĦæĹħ": 5197,
      "ä¸ĢéĹª": 5198,
      "æ²Ĳ": 5199,
      "åİī": 5200,
      "è¡Įäºº": 5201,
      "åĨ¬æĹ¥": 5202,
      "è¿İæİ¥": 5203,
      "©æ¶¡": 5204,
      "è¿Ļçīĩ": 5205,
      "æģ¢": 5206,
      "ç¡ķ": 5207,
      "å±ĭæªĲ": 5208,
      "å°ıåĮº": 5209,
      "è¯´çĿĢ": 5210,
      "æ¢µ": 5211,
      "ä¾£": 5212,
      "çģ¯ä¸ĭ": 5213,
      "çļĦçİĭ": 5214,
      "éĤĢ": 5215,
      "éĤ£äºº": 5216,
      "åĨįè§ģ": 5217,
      "æĲı": 5218,
      "ä¸įå¹¸": 5219,
      "çĶ«": 5220,
      "çľĭäºĨ": 5221,
      "åı£è¢ĭ": 5222,
      "çļĦéĿĻ": 5223,
      "çļĦåĸľ": 5224,
      "ä¼«": 5225,
      "ä¸Ģåıªé¸Ł": 5226,
      "å²¸è¾¹": 5227,
      "è¹¦": 5228,
      "è¿½èµ¶": 5229,
      "é¡¾åŁİ": 5230,
      "âĪ": 5231,
      "è¯ħ": 5232,
      "åĢį": 5233,
      "èįīä¸Ľ": 5234,
      "çŀİ": 5235,
      "æĦıå¤ĸ": 5236,
      "åĺ´å·´": 5237,
      "çļĦè¡£æľį": 5238,
      "æ²¸èħ¾": 5239,
      "30": 5240,
      "åİ¢": 5241,
      "æĹłåĲį": 5242,
      "é¢ĵ": 5243,
      "çĻ½åıĳ": 5244,
      "æ£ĺ": 5245,
      "å»ĵ": 5246,
      "æµªæ¼«": 5247,
      "çī²": 5248,
      "æĹłèģĬ": 5249,
      "æĭ¦": 5250,
      "æĭŃ": 5251,
      "èĥ¶": 5252,
      "éĿĴå¹´": 5253,
      "å³Ń": 5254,
      "ç¡®å®ŀ": 5255,
      "çļĦå¤´é¢ħ": 5256,
      "è¡¬": 5257,
      "è¡·": 5258,
      "è¯´çļĦ": 5259,
      "çļĦçº¿": 5260,
      "èĢĲå¿ĥ": 5261,
      "çļĦçĭĹ": 5262,
      "çļĦæ¶Īæģ¯": 5263,
      "©åºı": 5264,
      "äººå¿ĥ": 5265,
      "æ»ŀ": 5266,
      "èĢģåİ»": 5267,
      "åĺ²": 5268,
      "æĨ¾": 5269,
      "çļĦç¾½æ¯Ľ": 5270,
      "æĺ¯æĪĳä»¬": 5271,
      "åĴ¯": 5272,
      "çľĭå¾Ĺ": 5273,
      "ç¼łç»ķ": 5274,
      "çļĦåĿŁ": 5275,
      "ä¸Ĭæµ·": 5276,
      "æĶ»": 5277,
      "éª¤": 5278,
      "çļĦå¤§åľ°": 5279,
      "ä¸įæŃ¢": 5280,
      "ä¸įèĤ¯": 5281,
      "æĢĸ": 5282,
      "æĹłè¾ľ": 5283,
      "æĸŃäºĨ": 5284,
      "æį®è¯´": 5285,
      "ç¥Ŀç¦ı": 5286,
      "ä»Ķç»Ĩ": 5287,
      "æĿ°": 5288,
      "è¿Ļä¸įæĺ¯": 5289,
      "è¿Ļåº§": 5290,
      "åģľä¸ĭæĿ¥": 5291,
      "ç»Ĩå°ı": 5292,
      "å½¢æĪĲ": 5293,
      "æ±łåĩĮäºĳ": 5294,
      "å¿ĺè®°äºĨ": 5295,
      "ä¸įå¾Ĺä¸į": 5296,
      "ä½łæĬĬ": 5297,
      "ä¸ĬæĿ¥": 5298,
      "åĴĮä»ĸ": 5299,
      "ä¹Łå°±": 5300,
      "çļĦéĤ£äºĽ": 5301,
      "è£¸éľ²": 5302,
      "çļĦåŃĹ": 5303,
      "çİĦ": 5304,
      "è£ģ": 5305,
      "å»¶ä¼¸": 5306,
      "çļĦçŀ¬": 5307,
      "çļĦèº¯ä½ĵ": 5308,
      "åĨĮ": 5309,
      "åīįä¸ĸ": 5310,
      "åīįè¿Ľ": 5311,
      "å·²æĺ¯": 5312,
      "è´©": 5313,
      "ä¾¯": 5314,
      "å½ĵæĹ¶": 5315,
      "çľ¼ä¸Ń": 5316,
      "å¯¡": 5317,
      "æ´¥": 5318,
      "ç©ºæ´ŀ": 5319,
      "åķ¤éħĴ": 5320,
      "æķ´æķ´": 5321,
      "æ¶ĪéĢĿ": 5322,
      "éĴŁå£°": 5323,
      "å¼Łå¼Ł": 5324,
      "æĹ¶åĪĨ": 5325,
      "èµ°åĬ¨": 5326,
      "ä¿±": 5327,
      "è·¯åı£": 5328,
      "å¿ħè¦ģ": 5329,
      "çļĦè½®": 5330,
      "å¥ĸ": 5331,
      "èĲĿ": 5332,
      "åģļäºĨ": 5333,
      "çĶ±äºİ": 5334,
      "ä¼Ĺå¤ļ": 5335,
      "å¹½æļĹ": 5336,
      "çļĦåĵĢ": 5337,
      "å°ıåŃ©": 5338,
      "åĺĽ": 5339,
      "å®ĪçĿĢ": 5340,
      "ä¸¤ä¸ªäºº": 5341,
      "æ¾ľ": 5342,
      "éĻĮçĶŁäºº": 5343,
      "çļĦå¤´åıĳ": 5344,
      "ä¸ĢåĲĮ": 5345,
      "åĪ°ä½ł": 5346,
      "æĬĬä»ĸ": 5347,
      "ä»Ģä¹ĪæĹ¶åĢĻ": 5348,
      "çļĦçī©": 5349,
      "æ¾¡": 5350,
      "ä¸Ģç¼ķ": 5351,
      "èµ°åİ»": 5352,
      "æŃ»äºİ": 5353,
      "æĸ°çļĦ": 5354,
      "çļĦå§¿æĢģ": 5355,
      "é³ŀ": 5356,
      "æĪĳçĽ¸ä¿¡": 5357,
      "çĶ¸": 5358,
      "èµ«": 5359,
      "éĢĹ": 5360,
      "èĮĥ": 5361,
      "åĽĽéĿ¢": 5362,
      "çļĦæīĢ": 5363,
      "èµ¶ç´§": 5364,
      "éĩĬæĶ¾": 5365,
      "æĬĽå¼ĥ": 5366,
      "çºłç¼ł": 5367,
      "æĺ¯åĽłä¸º": 5368,
      "ä¸įåłª": 5369,
      "åħĢ": 5370,
      "èµĮ": 5371,
      "å¤©å¤©": 5372,
      "åĨįä¸Ģæ¬¡": 5373,
      "ä»Ģä¹Īéĥ½": 5374,
      "æĦŁè°¢": 5375,
      "èĮİ": 5376,
      "ç³Ļ": 5377,
      "åĸ§åļ£": 5378,
      "èŃ¬å¦Ĥ": 5379,
      "åľ¨äºĨ": 5380,
      "è¿ĩå¾Ģ": 5381,
      "éĻĢ": 5382,
      "é£ŀæĿ¥": 5383,
      "å¾Ģå¾Ģ": 5384,
      "æĢ»æľī": 5385,
      "èĨ¨": 5386,
      "æĬ½çĥŁ": 5387,
      "å®¿åĳ½": 5388,
      "æĻ¦": 5389,
      "å±±æ°´": 5390,
      "å½ĵä½ľ": 5391,
      "æĹ©å°±": 5392,
      "å¥ĩæĢª": 5393,
      "è¿Ļä¹Īå¤ļ": 5394,
      "äºĨè§£": 5395,
      "ä¹ĭå¤ľ": 5396,
      "æĽ´æ·±": 5397,
      "çļĦå§ĳ": 5398,
      "è¦ģæ±Ĥ": 5399,
      "è´ŀ": 5400,
      "èĢģé¼ł": 5401,
      "æĺ¯ä¸ĢæĿ¡": 5402,
      "èĬ¦èĭĩ": 5403,
      "æİ·": 5404,
      "éĩįéĩį": 5405,
      "èĿł": 5406,
      "åģĩè£ħ": 5407,
      "çļĦçĮ«": 5408,
      "å¼Ģåı£": 5409,
      "åĸ³": 5410,
      "åĲĳæĹ¥": 5411,
      "éĽ¨åĲİ": 5412,
      "æĸ°éĹ»": 5413,
      "åĮĸæĪĲ": 5414,
      "é¾Ł": 5415,
      "çļĦæĢ§": 5416,
      "çļĦæĿĳåºĦ": 5417,
      "å¤§çīĩ": 5418,
      "éľī": 5419,
      "åĳ½åĲį": 5420,
      "æ£ĭ": 5421,
      "æııè¿°": 5422,
      "åĴĢåļ¼": 5423,
      "çļĦä¸Ģå¤©": 5424,
      "ç©¿ä¸Ĭ": 5425,
      "çŃīä½ł": 5426,
      "åģľçķĻ": 5427,
      "åŃ¤å¯Ĥ": 5428,
      "å¦ĤæŀľæĪĳ": 5429,
      "ä¸Ģä¸ĭåŃĲ": 5430,
      "çĿģå¼Ģ": 5431,
      "çļĦè¿·": 5432,
      "åĩºçİ°åľ¨": 5433,
      "åĳ¼åķ¸": 5434,
      "é£ĺèĲ½": 5435,
      "æĪĳä¸İ": 5436,
      "äºĨä¸ĭæĿ¥": 5437,
      "æĳĦ": 5438,
      "çļĦæŃ¥": 5439,
      "çĬ¹è±«": 5440,
      "ħæłı": 5441,
      "ä¸Ģåľ°": 5442,
      "åľ¨å¤©ç©º": 5443,
      "ä¹ĸ": 5444,
      "æĥ¶": 5445,
      "çī©è´¨": 5446,
      "æ¯ıä¸Ģæ¬¡": 5447,
      "çĲĨçĶ±": 5448,
      "çļĦå¥³åŃĲ": 5449,
      "ä¸ĽæŀĹ": 5450,
      "åı¬åĶ¤": 5451,
      "çļĦåŃĺåľ¨": 5452,
      "æ»Ķ": 5453,
      "çļĦåįĪ": 5454,
      "çļĦèĦ¸ä¸Ĭ": 5455,
      "æħ¢æħ¢åľ°": 5456,
      "åµĮ": 5457,
      "çļĦçŀ¬éĹ´": 5458,
      "æĪĳç«Ļåľ¨": 5459,
      "åĩ¿": 5460,
      "çľ¨": 5461,
      "èĩªä¸ªåĦ¿": 5462,
      "æĻ¾": 5463,
      "çĪ±æĪĳ": 5464,
      "æ»¡è¶³": 5465,
      "ä¼¤å®³": 5466,
      "å°ĸéĶĲ": 5467,
      "çļĦæ¡ĥ": 5468,
      "ĻèĿł": 5469,
      "å°±æľī": 5470,
      "æĹłå¥Ī": 5471,
      "å§Ĩ": 5472,
      "æīįä¼ļ": 5473,
      "è½¬åĬ¨": 5474,
      "è¯·ä½ł": 5475,
      "æĹłæĦı": 5476,
      "èĢĮä¸ĭ": 5477,
      "åĿª": 5478,
      "é£İéĩĮ": 5479,
      "åķª": 5480,
      "æ»¡å¤©": 5481,
      "çªĹå¸ĺ": 5482,
      "å®ĮäºĨ": 5483,
      "æ·¡æ·¡": 5484,
      "çļĦç«¥å¹´": 5485,
      "çļĦæĹ§": 5486,
      "çĸĨ": 5487,
      "çļĦé¢Ŀ": 5488,
      "ä¸Ģå®ļè¦ģ": 5489,
      "çļĦå°½å¤´": 5490,
      "æĪĳå¾Ī": 5491,
      "æĪĳè¿ĺæĺ¯": 5492,
      "åİ»çľĭ": 5493,
      "èĢģå©Ĩ": 5494,
      "çķĻç»Ļ": 5495,
      "è·Łéļı": 5496,
      "æ¿": 5497,
      "æĪĳèĩªå·±": 5498,
      "åı¨": 5499,
      "åĨ¯": 5500,
      "ä¹ĭå¤Ħ": 5501,
      "æĸ¹å¼ı": 5502,
      "è¾¹ç¼ĺ": 5503,
      "éªĦåĤ²": 5504,
      "åĸľæĤ¦": 5505,
      "éĶĻè¯¯": 5506,
      "çļĦåĲį": 5507,
      "ä¸ĢåĽ¢": 5508,
      "äºĨèµ·æĿ¥": 5509,
      "åĲĳå¾Ģ": 5510,
      "æ²īæĢĿ": 5511,
      "çľŁæĺ¯": 5512,
      "è¯»ä¹¦": 5513,
      "å¿įä¸įä½ı": 5514,
      "ä¸Ģæīĩ": 5515,
      "æĪĳå°±æĺ¯": 5516,
      "æĪĳåıªèĥ½": 5517,
      "ä¸įåĥı": 5518,
      "æ¡¦": 5519,
      "åģļæ¢¦": 5520,
      "ç³Ł": 5521,
      "æĪĳåı¯ä»¥": 5522,
      "åİķ": 5523,
      "æ»¥": 5524,
      "è´¢": 5525,
      "åĨħéĥ¨": 5526,
      "éģįåľ°": 5527,
      "çļĦè¾¹ç¼ĺ": 5528,
      "çļĦè¶³": 5529,
      "æģ¢å¤į": 5530,
      "æĺ¯ä»ĸ": 5531,
      "åĴĮå¹³": 5532,
      "çľĭæ¸ħ": 5533,
      "éĥ½è¢«": 5534,
      "æĮª": 5535,
      "ç¦¾": 5536,
      "åįģæľĪ": 5537,
      "æ£º": 5538,
      "æ¯ĶæĪĳ": 5539,
      "éļıæĦı": 5540,
      "éļĲéļĲ": 5541,
      "æĶ¿æ²»": 5542,
      "çĮ®ç»Ļ": 5543,
      "çĩķåŃĲ": 5544,
      "åĲĳæĹ¥èĳµ": 5545,
      "çĿĢæĪĳä»¬": 5546,
      "å¤©è¾¹": 5547,
      "èĢĮæĪĳä»¬": 5548,
      "åĵİ": 5549,
      "çĽ¸åĲĮ": 5550,
      "ç¥ŀåľ£": 5551,
      "åİŁå§ĭ": 5552,
      "ä¹ħä¹ħ": 5553,
      "åŀĴ": 5554,
      "æ²§æ¡ĳ": 5555,
      "è¯ħåĴĴ": 5556,
      "çļĦåı¤": 5557,
      "çļĦæĺŁæĺŁ": 5558,
      "è®©å¥¹": 5559,
      "ç©¿æ¢Ń": 5560,
      "ä¹¦åĨĻ": 5561,
      "çļĦèĦĬ": 5562,
      "çļĦèĦļåį°": 5563,
      "å¦¹å¦¹": 5564,
      "æĬĴæĥħ": 5565,
      "æīĵç®Ĺ": 5566,
      "çĿ¡åİ»": 5567,
      "å¤įæĿĤ": 5568,
      "æĢĢéĩĮ": 5569,
      "ä¼łéĢĴ": 5570,
      "åĪ¹éĤ£": 5571,
      "ä¸Ģä¸ĩ": 5572,
      "ä¸įè¯´": 5573,
      "åĮį": 5574,
      "åĮĸä½ľ": 5575,
      "ç¢İäºĨ": 5576,
      "çļĦæ¢¦æĥ³": 5577,
      "éº¦åŃĲ": 5578,
      "ä¸ĢæĹ¦": 5579,
      "æĿĸ": 5580,
      "åĴļ": 5581,
      "ä¹Łèĥ½": 5582,
      "åıĪä¸Ģä¸ª": 5583,
      "ç«ĭåľ¨": 5584,
      "çļĦèĿ´èĿ¶": 5585,
      "å°¤åħ¶": 5586,
      "èĢĮä¸Ĭ": 5587,
      "å¿ĥäºĭ": 5588,
      "é¸¥": 5589,
      "çļĦäººçĶŁ": 5590,
      "éĿĻé»ĺ": 5591,
      "è°ģåľ¨": 5592,
      "çŃīäºİ": 5593,
      "å¾®å¼±": 5594,
      "éĢļåĲĳ": 5595,
      "å±ĭéĩĮ": 5596,
      "Ķè¯ļ": 5597,
      "æĪĳçļĦèº«ä½ĵ": 5598,
      "è¿Ļä¸ĸçķĮ": 5599,
      "åĢļ": 5600,
      "ç¥ŀç»ı": 5601,
      "æ£į": 5602,
      "é²¸": 5603,
      "çļĦåĽ¾": 5604,
      "å³¦": 5605,
      "ä¸įä¸ĭ": 5606,
      "å¥´": 5607,
      "æĦŁåĬ¨": 5608,
      "éĢĥç¦»": 5609,
      "çļĦæ·±å¤Ħ": 5610,
      "çļĦåĴĮ": 5611,
      "çļĦå§ĳå¨ĺ": 5612,
      "çĿĢå®ĥ": 5613,
      "æ¬º": 5614,
      "å·²ä¹ħ": 5615,
      "ä½Ĩä½ł": 5616,
      "æľªæĽ¾": 5617,
      "èľĺèĽĽ": 5618,
      "å©ī": 5619,
      "çļĦå¹¿": 5620,
      "çļĦå¤§æµ·": 5621,
      "éļĶå£ģ": 5622,
      "çļĦåĸī": 5623,
      "çļĦåĶĩ": 5624,
      "15": 5625,
      "è¯ĳ": 5626,
      "çĿĢå¤´": 5627,
      "æĿ¥å¾Ĺ": 5628,
      "è¿ĻæĹ¶åĢĻ": 5629,
      "åĥ§": 5630,
      "æİª": 5631,
      "æľ¨å¤´": 5632,
      "ä»£æĽ¿": 5633,
      "äº¤ç»Ļ": 5634,
      "çļĦè½»": 5635,
      "å§Ĳå§Ĳ": 5636,
      "æĪ¿éĹ´éĩĮ": 5637,
      "éŃģè´¤": 5638,
      "âĪ¶": 5639,
      "æĿ¥è¯´": 5640,
      "å¥¹æĺ¯": 5641,
      "çŃĸ": 5642,
      "æĢĢæĬ±": 5643,
      "æĿİéŃģè´¤": 5644,
      "å¤ļå¹´åīį": 5645,
      "çļĦçīĽ": 5646,
      "å¬": 5647,
      "çļĦåĲİ": 5648,
      "ä¸įå°ıå¿ĥ": 5649,
      "çĸ¤": 5650,
      "éĶ¯": 5651,
      "åĪĨå¼Ģ": 5652,
      "æ£ł": 5653,
      "ç±½": 5654,
      "ç»Īç©¶": 5655,
      "åħ¬éĩĮ": 5656,
      "çŀ³": 5657,
      "ç²®é£Ł": 5658,
      "åİ¨æĪ¿": 5659,
      "çļĦè¿ĩç¨ĭ": 5660,
      "æ³»": 5661,
      "èĬ±é¦Ļ": 5662,
      "æ¶¸": 5663,
      "éª¸": 5664,
      "çł¾": 5665,
      "å»ī": 5666,
      "äººéĥ½": 5667,
      "ä½łæľī": 5668,
      "å¤©é¹ħ": 5669,
      "æĹ¶å¸¸": 5670,
      "å¤§é£İ": 5671,
      "éĩİèĬ±": 5672,
      "ä¹¡ä¸ĭ": 5673,
      "è¾īçħĮ": 5674,
      "å¼ĢçĿĢ": 5675,
      "è¦ģåİ»": 5676,
      "å¤ļä¹ħ": 5677,
      "éĩİèįī": 5678,
      "çļĦæłĩ": 5679,
      "çļĦè¡Ģæ¶²": 5680,
      "æĬ¬èµ·": 5681,
      "åıŃ": 5682,
      "æĹłçŁ¥": 5683,
      "å£¤": 5684,
      "æĥ³å¿µ": 5685,
      "è¿ĺæľīä¸Ģ": 5686,
      "åĬ¨ä½ľ": 5687,
      "æ¼ª": 5688,
      "åħ³éĹŃ": 5689,
      "éĹªéĹª": 5690,
      "åłĨç§¯": 5691,
      "çļĦçĹķ": 5692,
      "çļĦéľ²": 5693,
      "çļĦçĸ¼çĹĽ": 5694,
      "å¥¢": 5695,
      "æŁĦ": 5696,
      "èĥŀ": 5697,
      "é£ŀèĪŀ": 5698,
      "æįĤ": 5699,
      "éĹªèĢĢ": 5700,
      "æ±łå¡ĺ": 5701,
      "çļĦå¯ĤéĿĻ": 5702,
      "ä¸įè¯¥": 5703,
      "æīģ": 5704,
      "è¿Ļæĺ¯ä¸Ģ": 5705,
      "å°ıå¦¹": 5706,
      "æĥ³æĥ³": 5707,
      "å¥½çļĦ": 5708,
      "åĩłå¹´": 5709,
      "æ±Łå±±": 5710,
      "çļĦèĭį": 5711,
      "åģ¥åº·": 5712,
      "èĶĵå»¶": 5713,
      "æĢ»ä¼ļ": 5714,
      "è¿Ļæĺ¯ä¸Ģä¸ª": 5715,
      "æ°ĳæĹı": 5716,
      "èĨ¨èĥĢ": 5717,
      "Ġæĺ¯": 5718,
      "åĮĲ": 5719,
      "çĤĴ": 5720,
      "å±±è°·": 5721,
      "æ»¡åľ°": 5722,
      "æľ¬è´¨": 5723,
      "ç³ķ": 5724,
      "çĽ®çĿ¹": 5725,
      "èĮ«çĦ¶": 5726,
      "å·¦æīĭ": 5727,
      "åįģå¹´åīį": 5728,
      "çļĦéŁ³ä¹Ĳ": 5729,
      "çļĦæŀľå®ŀ": 5730,
      "çļĦæ³¥åľŁ": 5731,
      "18": 5732,
      "åľ¨æĺ¥å¤©": 5733,
      "ä¸įä¸º": 5734,
      "äºĨä»ĸ": 5735,
      "ä½łå°Ĩ": 5736,
      "éªĨ": 5737,
      "åįģåĽĽ": 5738,
      "æ½ĺ": 5739,
      "æ¢ħèĬ±": 5740,
      "çļĦç¾İä¸½": 5741,
      "ä¸įç»ı": 5742,
      "å¾¡": 5743,
      "åħīæ»ĳ": 5744,
      "å¾Ĺåĥı": 5745,
      "éķ¿æĪĲ": 5746,
      "åºĦç¨¼": 5747,
      "ä¸ĢæľµèĬ±": 5748,
      "çļĦèģ": 5749,
      "æł·åŃĲ": 5750,
      "éļıä¾¿": 5751,
      "æĹĭå¾ĭ": 5752,
      "æģĭçĪ±": 5753,
      "¯æķĳ": 5754,
      "çļĦä¼¤åı£": 5755,
      "ä¸įæĺİ": 5756,
      "è®¯": 5757,
      "éĤ£æĹ¶åĢĻ": 5758,
      "ç¢į": 5759,
      "åĺİ": 5760,
      "çļĦå½¢çĬ¶": 5761,
      "çļĦçĹķè¿¹": 5762,
      "äºĨåıĪ": 5763,
      "ä¸ĭä¸Ģä¸ª": 5764,
      "åıªä¸º": 5765,
      "æĪĲç¾¤": 5766,
      "æ»¨": 5767,
      "çĽ¸çĪ±": 5768,
      "ç»ĵå©ļ": 5769,
      "çĥŃæĥħ": 5770,
      "çļĦæ¢¦å¢ĥ": 5771,
      "çļĦæŀ¯": 5772,
      "æ»ļåĬ¨": 5773,
      "ç¬¼ç½©": 5774,
      "æĭĽåĳ¼": 5775,
      "çļĦæ¥¼": 5776,
      "ä¸ĢåĬ¨": 5777,
      "åı¯æĢķ": 5778,
      "åĪĨæĺİ": 5779,
      "åģļçĪ±": 5780,
      "è¿Ļæł·çļĦ": 5781,
      "æľĢåĲİä¸Ģ": 5782,
      "éĽĨä½ĵ": 5783,
      "ä¸ĳçŁ³": 5784,
      "çļĦå¹´ä»£": 5785,
      "åı½": 5786,
      "å¯¥": 5787,
      "çĶŁæĹ¥": 5788,
      "å®īå®ģ": 5789,
      "åį³ä¾¿": 5790,
      "ä¼ĺéĽħ": 5791,
      "çļĦéº»": 5792,
      "çļĦåĨ¬å¤©": 5793,
      "èī°éļ¾": 5794,
      "çļĦåħ¬": 5795,
      "æ³ŀ": 5796,
      "éĢŁåº¦": 5797,
      "çļĦçĭĤ": 5798,
      "éĻĦè¿ĳ": 5799,
      "åı©": 5800,
      "çĶŁéĶĪ": 5801,
      "æľĢå¤§": 5802,
      "æµ·åŃĲ": 5803,
      "æĮĤçĿĢ": 5804,
      "è§Ĥå¯Ł": 5805,
      "ä¸§å¤±": 5806,
      "æĪĲåĬŁ": 5807,
      "åĸĩ": 5808,
      "ç»ıéªĮ": 5809,
      "ç²ª": 5810,
      "ä¼ĹçĶŁ": 5811,
      "Łæ¼ª": 5812,
      "æīĽ": 5813,
      "åŃĲå®«": 5814,
      "æĭ§": 5815,
      "è½¦ä¸Ĭ": 5816,
      "åıĹä¼¤": 5817,
      "æ±Łæ¹ĸ": 5818,
      "å±Ĥå±Ĥ": 5819,
      "çļĦæħ": 5820,
      "çļĦåĭ": 5821,
      "çļĦåĨľ": 5822,
      "éķľä¸Ń": 5823,
      "ä»·åĢ¼": 5824,
      "çļĦè¡Ĺéģĵ": 5825,
      "ä»ªå¼ı": 5826,
      "åĪł": 5827,
      "éģģ": 5828,
      "èĦļåį°": 5829,
      "æķ²æīĵ": 5830,
      "ç©ºæ°Ķä¸Ń": 5831,
      "æĪĳå¿ħé¡»": 5832,
      "çļĦçķ": 5833,
      "çļĦè¥": 5834,
      "æīĭèĩĤ": 5835,
      "éĺ³åı°": 5836,
      "åŁİéĩĮ": 5837,
      "çļĦæķĻ": 5838,
      "åŁĭåľ¨": 5839,
      "ä¸Ĭä¸Ģ": 5840,
      "éķ¿æ±Ł": 5841,
      "çĭ®åŃĲ": 5842,
      "è¶¾": 5843,
      "ç»Ļå¥¹": 5844,
      "èįīåľ°": 5845,
      "ç¢¾": 5846,
      "æĪĳæĥ³èµ·": 5847,
      "è¯ķçĿĢ": 5848,
      "åĬ³åĬ¨": 5849,
      "æĺĮ": 5850,
      "å®ł": 5851,
      "è¯¡": 5852,
      "æĹłæĥħ": 5853,
      "åīĶ": 5854,
      "æ¸ħåĩī": 5855,
      "é©¬ä¸Ĭ": 5856,
      "çŃīåĢĻ": 5857,
      "éľ²çıł": 5858,
      "çļĦçģ¯åħī": 5859,
      "çļĦåĢĴ": 5860,
      "çļĦå¯Ĥå¯ŀ": 5861,
      "çļĦå¿«ä¹Ĳ": 5862,
      "çĢĳ": 5863,
      "çļĦæ½®": 5864,
      "çļĦé¬": 5865,
      "æĸ¥": 5866,
      "åģľä¸ĭ": 5867,
      "åı¤ä»£": 5868,
      "çł´äºĨ": 5869,
      "å±ĭåŃĲ": 5870,
      "å²¸ä¸Ĭ": 5871,
      "çļĦèĬ±åĽŃ": 5872,
      "ä¸įæĸŃåľ°": 5873,
      "å¿Ļç¢Į": 5874,
      "è´«ç©·": 5875,
      "å¡ĳæĸĻ": 5876,
      "è¿Ŀ": 5877,
      "åĩºä¸Ģä¸ª": 5878,
      "ä¹ĭçī©": 5879,
      "éĥ½æ²¡": 5880,
      "æĤ¼": 5881,
      "åĳ¼åĸĬ": 5882,
      "çļĦèº«èº¯": 5883,
      "çĭłçĭł": 5884,
      "åĵ²åŃ¦": 5885,
      "æĽ¹": 5886,
      "åĲĮä¸Ģä¸ª": 5887,
      "çļĦç¡®": 5888,
      "çļĦåĹ": 5889,
      "éĤ£çīĩ": 5890,
      "å¤§è¡Ĺ": 5891,
      "å¿ĥè·³": 5892,
      "çĭ¸": 5893,
      "æĥħç»ª": 5894,
      "åĽĽåįģ": 5895,
      "ç»ĪçĤ¹": 5896,
      "ç²Ĺç³Ļ": 5897,
      "çļĦåĮĹ": 5898,
      "èµİ": 5899,
      "å±ł": 5900,
      "ä¸ºæŃ¤": 5901,
      "çļĦä¸Ģéĥ¨åĪĨ": 5902,
      "ä¸įè§ģäºĨ": 5903,
      "ä¼Ĺäºº": 5904,
      "åĬŀæ³ķ": 5905,
      "çļĦç¬ĳå®¹": 5906,
      "åĩ³": 5907,
      "å·¡": 5908,
      "ä»İä½ł": 5909,
      "æŃ£åįĪ": 5910,
      "åĲĥäºĨ": 5911,
      "ç»ķè¿ĩ": 5912,
      "æ¿ĢåĬ¨": 5913,
      "æĿľçĶ«": 5914,
      "æľīæīĢ": 5915,
      "åĩĳ": 5916,
      "æĹ¶èĢĮ": 5917,
      "åĢĴä¸ĭ": 5918,
      "èĭıéĨĴ": 5919,
      "ç´¯äºĨ": 5920,
      "çļĦçĲĨçĶ±": 5921,
      "®èĦı": 5922,
      "åľ°åĽ¾": 5923,
      "æĹłåı¯": 5924,
      "ä»¥å¤ĸ": 5925,
      "è´Ń": 5926,
      "æĢ»åľ¨": 5927,
      "éĢĿåİ»": 5928,
      "çļĦæĤ²ä¼¤": 5929,
      "ä½łçĶ¨": 5930,
      "ä¸Ĭä¸ĭ": 5931,
      "åĩ¸": 5932,
      "éĤĵ": 5933,
      "åįģåĪĨ": 5934,
      "åĪĨç¦»": 5935,
      "èĥĮçĿĢ": 5936,
      "åĮįåĮĲ": 5937,
      "çļĦèĢ³æľµ": 5938,
      "è¿Ļæ¬¡": 5939,
      "æ°´æµģ": 5940,
      "éĶ¤": 5941,
      "çļĦéĽ¾": 5942,
      "æĬĺæĸŃ": 5943,
      "ä¸Ģåįĥ": 5944,
      "çļĦçĬ": 5945,
      "å¤§åŃ¦": 5946,
      "ç¾¡": 5947,
      "åıĪåľ¨": 5948,
      "è¶Ł": 5949,
      "çłĮ": 5950,
      "åı«åģļ": 5951,
      "è¿ĺæľīä»Ģä¹Ī": 5952,
      "åĨľæ°ĳ": 5953,
      "çĸ«æĥħ": 5954,
      "ä¸ĢæĿŁ": 5955,
      "å®ı": 5956,
      "å·ħ": 5957,
      "åŃĲåĴĮ": 5958,
      "æĹ¶ç©º": 5959,
      "å°±è±¡": 5960,
      "å¤ľç©º": 5961,
      "çļĦå¿ĥçģµ": 5962,
      "éĶĻäºĨ": 5963,
      "æ»ļæ»ļ": 5964,
      "èģļéĽĨ": 5965,
      "æŀĦæĪĲ": 5966,
      "æµĳèº«": 5967,
      "å°Ĭä¸¥": 5968,
      "çļĦç§ĭå¤©": 5969,
      "§æ¡Ĳ": 5970,
      "çļĦåĻ": 5971,
      "è¿Ļåıª": 5972,
      "éģĤ": 5973,
      "ç¥¸": 5974,
      "å¤ĸåŃĻ": 5975,
      "æ²īåħ¥": 5976,
      "çłĤ": 5977,
      "æĲĵ": 5978,
      "çĶ·å¥³": 5979,
      "çļĦæ²¹": 5980,
      "æ¶Īå¤±äºĨ": 5981,
      "èİ²èĬ±": 5982,
      "çļĦéŀĭ": 5983,
      "çļĦé²ľ": 5984,
      "éĥ½èĥ½": 5985,
      "è°ľ": 5986,
      "å¿ĥåºķ": 5987,
      "å¥½å¤ļ": 5988,
      "å®¶åºŃ": 5989,
      "ç²±": 5990,
      "åħ¨æĺ¯": 5991,
      "çļĦæ¤į": 5992,
      "æĹłç©·": 5993,
      "åħīäº®": 5994,
      "è¿ĺä¸į": 5995,
      "æīĭä¸Ĭ": 5996,
      "éĴĿ": 5997,
      "åĲ¬çĿĢ": 5998,
      "æ²īå¯Ĥ": 5999,
      "çľŁçĽ¸": 6000,
      "èıĮ": 6001,
      "éļıé£İ": 6002,
      "ç¤ģ": 6003,
      "çļĦéĽ¨æ°´": 6004,
      "çĿ¡çĿĢäºĨ": 6005,
      "è¢«é£İ": 6006,
      "ä»ĸä»¬è¯´": 6007,
      "æĪ¿å±ĭ": 6008,
      "çĥŃçĥĪ": 6009,
      "ç»ĨéĽ¨": 6010,
      "å·¦è¾¹": 6011,
      "éĢĶä¸Ń": 6012,
      "åĲŀåĻ¬": 6013,
      "çļĦå¸Į": 6014,
      "Ĵæģ¯": 6015,
      "æĪĳåĲ¬åĪ°": 6016,
      "æĺ¯æĪĳçļĦ": 6017,
      "çļĦå¡": 6018,
      "çĤŃ": 6019,
      "æģķ": 6020,
      "æĺ¯ä¸Ģçīĩ": 6021,
      "çŃīåĪ°": 6022,
      "æķ£èĲ½": 6023,
      "é£Łçī©": 6024,
      "è¶ħè¶Ĭ": 6025,
      "åĲĽåĦ¿": 6026,
      "èķĬ": 6027,
      "æľīå¦Ĥ": 6028,
      "æĹ¥æľĪ": 6029,
      "å¯¹è¯Ŀ": 6030,
      "å°Ĩå®ĥ": 6031,
      "é«ĺæ¥¼": 6032,
      "å¾Īå¥½": 6033,
      "èľĵ": 6034,
      "å©ª": 6035,
      "é¢Ĩå¯¼": 6036,
      "ç´«èī²": 6037,
      "èĬ¬èĬ³": 6038,
      "æĭİ": 6039,
      "å±±ä¸Ń": 6040,
      "æĶ¶èİ·": 6041,
      "æİıåĩº": 6042,
      "èı©èĲ¨": 6043,
      "åľ¨é»ĳæļĹä¸Ń": 6044,
      "åĲ®": 6045,
      "éķ¿æ»¡": 6046,
      "ä¸¤æĿ¡": 6047,
      "ç½ļ": 6048,
      "çĽ´èĩ³": 6049,
      "åį´æĺ¯": 6050,
      "äºĮæľĪ": 6051,
      "çļĦå¾Ģ": 6052,
      "åĵĪåĵĪ": 6053,
      "ä»ĩæģ¨": 6054,
      "ä¸įåŃĺåľ¨": 6055,
      "å¯ĵ": 6056,
      "èĢĮä¸įæĺ¯": 6057,
      "äº®äºĨ": 6058,
      "ä¸Ģåıªæīĭ": 6059,
      "æĸĩåŃ¦": 6060,
      "åĵªä¸ª": 6061,
      "çŀ¥": 6062,
      "ä¸ĢäºĽäºº": 6063,
      "çļĦè¯Ĺåı¥": 6064,
      "è¿İéĿ¢": 6065,
      "æĸĳé©³": 6066,
      "æĹ±": 6067,
      "ä¸įè¯Ń": 6068,
      "çļĦåĤ": 6069,
      "åĬĿ": 6070,
      "å°ıè¯´": 6071,
      "æ°´æŀľ": 6072,
      "åīįæĸ¹": 6073,
      "çĶ¨åĬĽ": 6074,
      "æľĢç¾İ": 6075,
      "æ®·": 6076,
      "çļĦèĢģäºº": 6077,
      "æĹ¢çĦ¶": 6078,
      "çļĦçļ®": 6079,
      "ä¸ĢæİĴ": 6080,
      "åįĵ": 6081,
      "ä¹ŁæĹłæ³ķ": 6082,
      "å½ĵæĪĳä»¬": 6083,
      "åº¦è¿ĩ": 6084,
      "æī¾åĪ°äºĨ": 6085,
      "æ¸©åº¦": 6086,
      "ä»¤æĪĳ": 6087,
      "åĸīåĴĻ": 6088,
      "ä¸Ģè¾ĪåŃĲ": 6089,
      "æĭ¯æķĳ": 6090,
      "æĬĬæĪĳä»¬": 6091,
      "æ·«": 6092,
      "æ½º": 6093,
      "çĬ¬": 6094,
      "è·³åĬ¨": 6095,
      "æĳĩæĳĨ": 6096,
      "çļĦæłĳåı¶": 6097,
      "èŃ¦å¯Ł": 6098,
      "èīĺ": 6099,
      "å®¶åĽŃ": 6100,
      "çħ§çĿĢ": 6101,
      "ä¸įè§ī": 6102,
      "çļĦåŀ": 6103,
      "æŀ«": 6104,
      "æµģåĩº": 6105,
      "æµģæĺŁ": 6106,
      "é©´": 6107,
      "æ²Ļåıĳ": 6108,
      "åĢĴåľ¨": 6109,
      "ç¥ĸåħĪ": 6110,
      "åĿıäºĨ": 6111,
      "åħµåħµ": 6112,
      "åĸĺæģ¯": 6113,
      "çļĦæĪĺ": 6114,
      "å¤©æ¶¯": 6115,
      "ä»ĸæĬĬ": 6116,
      "æĢħ": 6117,
      "éĽªå±±": 6118,
      "åĩłæ¬¡": 6119,
      "ç©¿è¡Į": 6120,
      "çĿ¡åľ¨": 6121,
      "åı³è¾¹": 6122,
      "çļĦå·¦": 6123,
      "äººæĢ§": 6124,
      "åİ¦": 6125,
      "è®Ń": 6126,
      "ä¹ĭæŃĮ": 6127,
      "æµ·è¾¹": 6128,
      "å¹¶ä¸įæĺ¯": 6129,
      "çļĦèº«ä¸Ĭ": 6130,
      "æ¥¼ä¸ĭ": 6131,
      "åĲ¸å¼ķ": 6132,
      "éĺ´æļĹ": 6133,
      "çļĦèĤĮ": 6134,
      "çļĦéĶĻ": 6135,
      "æĻ®éĢļ": 6136,
      "çļĦèĪĮå¤´": 6137,
      "ä¸įæŃ»": 6138,
      "çļĦçĩ": 6139,
      "çĶŁçļĦ": 6140,
      "éĺ±": 6141,
      "è°¨": 6142,
      "åĪļå¥½": 6143,
      "çļĦåħīçº¿": 6144,
      "æĪļ": 6145,
      "åľ°è¯´": 6146,
      "å°ıé¸Ł": 6147,
      "çľĭä¸Ĭåİ»": 6148,
      "èµ°è¿ĳ": 6149,
      "è½¬è¿ĩ": 6150,
      "çļĦé«ĺåº¦": 6151,
      "åıĤåĬł": 6152,
      "çļĦä¸ī": 6153,
      "æĺ¯å¤ļä¹Ī": 6154,
      "çļĦå¨": 6155,
      "éĺģ": 6156,
      "å¤´æĿ¥": 6157,
      "è¿ľå±±": 6158,
      "åŁ¹": 6159,
      "çĽ¸è¯Ĩ": 6160,
      "çĸĹ": 6161,
      "èľĴ": 6162,
      "èıĩ": 6163,
      "éļĲç§ĺ": 6164,
      "éĻĪå®Ĺ": 6165,
      "èººçĿĢ": 6166,
      "éĻĪå®Ĺåįİ": 6167,
      "æĲĤ": 6168,
      "ç»ķçĿĢ": 6169,
      "ä¸°å¯Į": 6170,
      "è¸©çĿĢ": 6171,
      "çģ¾éļ¾": 6172,
      "è¿Ļä¸Ģå¤©": 6173,
      "æĪĳä»¬å°±": 6174,
      "è¿ĺæľª": 6175,
      "åĽŀæĿ¥äºĨ": 6176,
      "æľĢé«ĺ": 6177,
      "æ·±ç§ĭ": 6178,
      "åı«åĸĬ": 6179,
      "å¥ĩè¿¹": 6180,
      "æĭ¿çĿĢ": 6181,
      "æ¾Ħ": 6182,
      "çļĦæĥħäºº": 6183,
      "æ¯ķç«Ł": 6184,
      "»èľĵ": 6185,
      "æĪĳæĦŁåĪ°": 6186,
      "æľīæ²¡æľī": 6187,
      "ç©ºæĹł": 6188,
      "è¯Ĺåı¥": 6189,
      "ç¼Ģ": 6190,
      "æĽ´è¿ľ": 6191,
      "æľªçŁ¥": 6192,
      "éĹªäº®": 6193,
      "çĹħæ¯Ĵ": 6194,
      "çļĦçħ§": 6195,
      "åľ¨æĪĳçļĦ": 6196,
      "ä¸Ģä¸ªå°ı": 6197,
      "é»ı": 6198,
      "éĿ¢åĮħ": 6199,
      "æłĳæ¢¢": 6200,
      "çŃīæĪĳ": 6201,
      "æ¸¸æ³³": 6202,
      "çĬģ": 6203,
      "èµ·æĿ¥äºĨ": 6204,
      "æ±Łæ°´": 6205,
      "åĨ°å¿ĥ": 6206,
      "æŁĲäºĽ": 6207,
      "çļĦèĩªçĶ±": 6208,
      "éĺ»æŃ¢": 6209,
      "æ²Ĳæµ´": 6210,
      "åľ¨äºİ": 6211,
      "çļĦæĦ¿": 6212,
      "éģĵå¾·": 6213,
      "æĳ§": 6214,
      "é£ŀæī¬": 6215,
      "åįķçº¯": 6216,
      "çļĦåįĹ": 6217,
      "æ¦´": 6218,
      "çļĦç¼Ŀ": 6219,
      "æĭ¼åĳ½": 6220,
      "ä¸ºä¸Ģ": 6221,
      "è°§": 6222,
      "æµģè¿ĩ": 6223,
      "æŃ»åĲİ": 6224,
      "ç¨ļ": 6225,
      "èĸ¯": 6226,
      "å±ħä½ı": 6227,
      "éĶĭåĪ©": 6228,
      "çļĦè¥¿": 6229,
      "çļĦä¸ĭåįĪ": 6230,
      "è¿ª": 6231,
      "äºĨä»Ģä¹Ī": 6232,
      "ä¹ĭå¿ĥ": 6233,
      "åıĳäº®": 6234,
      "æµ·ä¸Ĭ": 6235,
      "åĨĻçĿĢ": 6236,
      "éħĴæĿ¯": 6237,
      "çº¿ä¸Ĭ": 6238,
      "æĸĩåĮĸ": 6239,
      "èĨĬ": 6240,
      "éĺ¿ç¿Ķ": 6241,
      "çļĦæ£®": 6242,
      "ä¸Īå¤«": 6243,
      "çļĦçĶµ": 6244,
      "çļĦåıį": 6245,
      "åĩ¹": 6246,
      "å°±ç®Ĺ": 6247,
      "æ²¡ä»Ģä¹Ī": 6248,
      "åłķ": 6249,
      "æĺ¨æĻļ": 6250,
      "æİ©åŁĭ": 6251,
      "æĪĳçĪ±ä½ł": 6252,
      "æĪĳæĽ¾ç»ı": 6253,
      "ä»ĸå¦Ī": 6254,
      "è°¦": 6255,
      "æ¸ħé£İ": 6256,
      "èĸĦèĸĦ": 6257,
      "èķī": 6258,
      "åĬŀåħ¬å®¤": 6259,
      "çļĦå°ĳå¥³": 6260,
      "ä¸Ģä¹Ŀ": 6261,
      "ä¸ĢèĤ¡": 6262,
      "ä¹Ķ": 6263,
      "æĹłéĻħ": 6264,
      "å¾Ĺä¸į": 6265,
      "æµ·æµª": 6266,
      "æµ·å²¸": 6267,
      "ç¾İåĽ½": 6268,
      "åį´åıĪ": 6269,
      "éº»æľ¨": 6270,
      "æ±Ĺæ°´": 6271,
      "çļĦæ´»": 6272,
      "çļĦä¸ĭ": 6273,
      "ä¸įå°½": 6274,
      "ä½łå·²": 6275,
      "åľ°éĵģ": 6276,
      "éĤĥ": 6277,
      "èĲ½äºĨ": 6278,
      "å§»": 6279,
      "åıĺå¹»": 6280,
      "è¥Ł": 6281,
      "ç»¿ç»¿": 6282,
      "é¹Ń": 6283,
      "å¿ĺåį´": 6284,
      "çļĦäº¤": 6285,
      "çļĦä¹³æĪ¿": 6286,
      "æĪĳä»¥": 6287,
      "ç»ĻäºĪ": 6288,
      "æ²īæ²ī": 6289,
      "æĴ¤": 6290,
      "ä¸Ģå¹ħ": 6291,
      "å®°": 6292,
      "å¯¿": 6293,
      "åıªåľ¨": 6294,
      "åĢĺ": 6295,
      "æ²¡æľīäºĨ": 6296,
      "åĲĳä¸ĭ": 6297,
      "éĶĦ": 6298,
      "éĿĴèĽĻ": 6299,
      "åĹĵ": 6300,
      "çļĦè¯ĹæŃĮ": 6301,
      "çļĦæ¸©æļĸ": 6302,
      "çļĦä¸»": 6303,
      "æĿī": 6304,
      "ä½łæĥ³": 6305,
      "èĤ®èĦı": 6306,
      "é»ĳèī²çļĦ": 6307,
      "éĺ³åı°ä¸Ĭ": 6308,
      "èĻĶè¯ļ": 6309,
      "åįĬçĶŁ": 6310,
      "æĺıæļĹ": 6311,
      "éģĹå¼ĥ": 6312,
      "å½©èĻ¹": 6313,
      "åįłæį®": 6314,
      "äºĨèĩªå·±": 6315,
      "ä½łèĥ½": 6316,
      "è¯´èµ·": 6317,
      "ä¿Ħ": 6318,
      "æ¯Ķè¾ĥ": 6319,
      "å¹²æ¶¸": 6320,
      "åĨ·æ¼ł": 6321,
      "åĶ±çĿĢ": 6322,
      "åĻ¢": 6323,
      "èĻļå¹»": 6324,
      "æĶ¯æĴĳ": 6325,
      "åļİ": 6326,
      "ç¿¼ç¿¼": 6327,
      "åĩĭéĽ¶": 6328,
      "èĦĸåŃĲ": 6329,
      "æĺ¯æľī": 6330,
      "ãĢĤâĢľ": 6331,
      "å¥ĳ": 6332,
      "æĹłé¢ĺ": 6333,
      "ä»İå®¹": 6334,
      "è°Ĳ": 6335,
      "ä¾Ħ": 6336,
      "èĨı": 6337,
      "åĮħåĽ´": 6338,
      "é¢Ħè¨Ģ": 6339,
      "æĤłæĤł": 6340,
      "èıĬèĬ±": 6341,
      "èº«äºİ": 6342,
      "åħ¥çĿ¡": 6343,
      "ä¸¤å²¸": 6344,
      "è®°å½ķ": 6345,
      "åİŁéĩİ": 6346,
      "çļĦé£Ł": 6347,
      "æ¸¸èį¡": 6348,
      "è¿·è·¯": 6349,
      "å¹»è§ī": 6350,
      "åºŀå¤§": 6351,
      "éģŃéģĩ": 6352,
      "16": 6353,
      "ä¸Ģå¯¸": 6354,
      "æ²Į": 6355,
      "çĽ¾": 6356,
      "çªĴæģ¯": 6357,
      "é«ĺè´µ": 6358,
      "ç¿ĺ": 6359,
      "é¼»åŃĲ": 6360,
      "éĻįèĲ½": 6361,
      "æĴķè£Ĥ": 6362,
      "çļĩå¸Ŀ": 6363,
      "çļĦç²¾ç¥ŀ": 6364,
      "ä¸įåıĺ": 6365,
      "æĭ½": 6366,
      "è¦ģæĬĬ": 6367,
      "æĽ¦": 6368,
      "å¼łæľĽ": 6369,
      "å®¹é¢ľ": 6370,
      "çļĦèĥ¡": 6371,
      "çļĦå¥³åŃ©": 6372,
      "çļĦçİī": 6373,
      "æ´ªæ°´": 6374,
      "çļĦæ£®æŀĹ": 6375,
      "°åĪĢ": 6376,
      "å¯¹ä½ł": 6377,
      "èľ¿": 6378,
      "æĶ¶æĭ¾": 6379,
      "åĻª": 6380,
      "ç¿»æ»ļ": 6381,
      "å°ĸä¸Ĭ": 6382,
      "çļĦæ±Ĺ": 6383,
      "éŃĶé¬¼": 6384,
      "åĭĩæķ¢": 6385,
      "ç¼ĸç»ĩ": 6386,
      "çļĦç½ª": 6387,
      "«åŃĲ": 6388,
      "çļĦæı": 6389,
      "çĿĢå¥¹": 6390,
      "åĨĪ": 6391,
      "æµģè¡Ģ": 6392,
      "çļĦä¸Ģåıª": 6393,
      "å¹²çĩ¥": 6394,
      "ç´§å¼ł": 6395,
      "æ¹¿æ¶¦": 6396,
      "ç¯·": 6397,
      "å½¼å²¸": 6398,
      "çļĦåľĨ": 6399,
      "è®¶": 6400,
      "èµ°å»Ĭ": 6401,
      "çĻ½éĽª": 6402,
      "æĹ¥è®°": 6403,
      "è´¾": 6404,
      "å°±æĺ¯æĪĳ": 6405,
      "åİŁæľ¬": 6406,
      "è¯īè¯´": 6407,
      "åħ·ä½ĵ": 6408,
      "ç«¥è¯Ŀ": 6409,
      "ĭéª¨": 6410,
      "å®ħ": 6411,
      "çľ¶": 6412,
      "æĿ¥è¿ĩ": 6413,
      "åĴĮæ°´": 6414,
      "å¤§äºĨ": 6415,
      "èĢģå¤´": 6416,
      "é«ĺéĢŁ": 6417,
      "æ£ļ": 6418,
      "åĽĽä¸ª": 6419,
      "å¿«éĢŁ": 6420,
      "å¹¸è¿Ĳ": 6421,
      "éĻ¢åŃĲéĩĮ": 6422,
      "ãĦ": 6423,
      "åĩ¯": 6424,
      "å±±ä¸ĭ": 6425,
      "çĽ¸å¯¹": 6426,
      "åįģä¸Ģ": 6427,
      "çĭ¬ç«ĭ": 6428,
      "åħħæ»¡äºĨ": 6429,
      "çļĦè§ĴèĲ½": 6430,
      "çļĦçīĻé½¿": 6431,
      "âĸ": 6432,
      "ä»Ģä¹Īæł·": 6433,
      "è½»æĿ¾": 6434,
      "æĴ©": 6435,
      "ä¹ħäºĨ": 6436,
      "æĬ¥çº¸": 6437,
      "å°ıå¿ĥç¿¼ç¿¼": 6438,
      "çļĦæ¤įçī©": 6439,
      "ä¸ĢçĻ¾": 6440,
      "æĪĳçľĭ": 6441,
      "æłĭ": 6442,
      "æĭ±": 6443,
      "éĻ¡": 6444,
      "æ·Ģ": 6445,
      "æ¡©": 6446,
      "ä½Ĩä»ĸ": 6447,
      "èİ±": 6448,
      "éĹªçĿĢ": 6449,
      "éĺµéĺµ": 6450,
      "èĥľåĪ©": 6451,
      "çļĦå½¢è±¡": 6452,
      "å¥¸": 6453,
      "èĤĸ": 6454,
      "èĲ½åħ¥": 6455,
      "äºĭä»¶": 6456,
      "æħ¨": 6457,
      "åı¦ä¸Ģä¸ªäºº": 6458,
      "è®¤çľŁ": 6459,
      "çļĦé»ĳå¤ľ": 6460,
      "å²Ľå±¿": 6461,
      "å®½éĺĶ": 6462,
      "åĲĽåŃĲ": 6463,
      "çļĦåĽŀå¿Ĩ": 6464,
      "çĹ´åĳĨ": 6465,
      "èļĬåŃĲ": 6466,
      "æĪĳç»Īäºİ": 6467,
      "ä½łä»İ": 6468,
      "åĳķ": 6469,
      "èº«æĹģ": 6470,
      "èĤĿ": 6471,
      "åĪļæīį": 6472,
      "è¿ŀåĲĮ": 6473,
      "æıĲçĿĢ": 6474,
      "çļĦåį°": 6475,
      "åĸ§åĵĹ": 6476,
      "æīŃæĽ²": 6477,
      "ä¸ĺä¸ĺ": 6478,
      "æķĮäºº": 6479,
      "ä¸ĭæ²ī": 6480,
      "çľĭèµ·æĿ¥": 6481,
      "åĬ¨äºĨ": 6482,
      "èĢģæĿ¿": 6483,
      "æŁ¿": 6484,
      "æĦŁæĥħ": 6485,
      "æĸ°çĶŁ": 6486,
      "åı«æĪĳ": 6487,
      "ç»Īå°Ĩ": 6488,
      "ç¢İçīĩ": 6489,
      "åĩºæĿ¥çļĦ": 6490,
      "é²ľè¡Ģ": 6491,
      "å¤ļå°ĳå¹´": 6492,
      "æĤĦçĦ¶": 6493,
      "ç¾Ĭç¾¤": 6494,
      "çļĦåºŁ": 6495,
      "æ³¡æ²«": 6496,
      "æĪ´çĿĢ": 6497,
      "è¤Ĳ": 6498,
      "çļĦä½Ļ": 6499,
      "ä¸Ģè¡Į": 6500,
      "æĪĳéĹ®": 6501,
      "ä½©": 6502,
      "é£İçŃĿ": 6503,
      "éĨĴçĿĢ": 6504,
      "éĹªåħī": 6505,
      "æ¥¼æ¢¯": 6506,
      "æĹłæķ°æ¬¡": 6507,
      "çļĦéĩįéĩı": 6508,
      "åĩ°": 6509,
      "å¤©çľŁ": 6510,
      "åģİ": 6511,
      "å¤ĸå©Ĩ": 6512,
      "æ£īèĬ±": 6513,
      "åĲł": 6514,
      "åľ°å¹³çº¿": 6515,
      "æĹłéĿŀ": 6516,
      "è¯ĹæĦı": 6517,
      "é¸½": 6518,
      "åľŁè±Ĩ": 6519,
      "åģļä¸Ģä¸ª": 6520,
      "èİī": 6521,
      "ç¿»å¼Ģ": 6522,
      "çļĦèĥĥ": 6523,
      "åºĦä¸¥": 6524,
      "æĴŀåĩ»": 6525,
      "ç¾ŀæ¶©": 6526,
      "çļĦæ´ŀ": 6527,
      "èĤļåŃĲ": 6528,
      "çļĦæģĲæĥ§": 6529,
      "§éģĵ": 6530,
      "éļľ": 6531,
      "ç»ĻæĪĳä»¬": 6532,
      "é»ĦåľŁ": 6533,
      "æİīèĲ½": 6534,
      "æ³¥æ³ŀ": 6535,
      "ä¸¾çĿĢ": 6536,
      "æ¶ĮåĬ¨": 6537,
      "è§¦åıĬ": 6538,
      "çļĦæļ´": 6539,
      "çļĦæĦ¿æľĽ": 6540,
      "ä¸įæľ½": 6541,
      "çļĦçı": 6542,
      "åīĤ": 6543,
      "æĹ¥åħī": 6544,
      "åĪĨåĪ«": 6545,
      "èĮħ": 6546,
      "æķ´å¤©": 6547,
      "èĬĤå¥ı": 6548,
      "æ¼«å¤©": 6549,
      "ç¹ģæĺŁ": 6550,
      "çļĦæĻº": 6551,
      "çļĦéĴ¢": 6552,
      "çĸ¾çĹħ": 6553,
      "åŃķèĤ²": 6554,
      "æĪĳå¼Ģå§ĭ": 6555,
      "åľ¨æ¢¦ä¸Ń": 6556,
      "ä¸įæģ¯": 6557,
      "åŃŁ": 6558,
      "å¤ļå¥½": 6559,
      "æŀĹä¸Ń": 6560,
      "æ¯įäº²è¯´": 6561,
      "åĪĢåŃĲ": 6562,
      "çļĦå½Ĵ": 6563,
      "é²ľèī³": 6564,
      "æľĪåħīä¸ĭ": 6565,
      "å¼¯èħ°": 6566,
      "èĻ«åŃĲ": 6567,
      "é£İåĲ¹è¿ĩ": 6568,
      "åĲ«çĿĢ": 6569,
      "æĻ¶èİ¹": 6570,
      "çļĦèĬĤå¥ı": 6571,
      "åİķæīĢ": 6572,
      "çļĦä¹Ĳ": 6573,
      "äº©": 6574,
      "çļĦç£": 6575,
      "èµ¢": 6576,
      "æĶ¥": 6577,
      "éĵ¸": 6578,
      "åĺĺ": 6579,
      "åħ¬åı¸": 6580,
      "ä¹°äºĨ": 6581,
      "åİļåİļ": 6582,
      "æľĹè¯µ": 6583,
      "æ¬£èµı": 6584,
      "çļĦéĴŁå£°": 6585,
      "æĥ³ä½ł": 6586,
      "åīįè¡Į": 6587,
      "ä»ĬåĦ¿": 6588,
      "çĮ´": 6589,
      "èĥĮåıĽ": 6590,
      "éķľå¤´": 6591,
      "ä¿ĿæĬ¤": 6592,
      "çļĦé¢Ĩ": 6593,
      "æ¡¥ä¸Ĭ": 6594,
      "çļĦåĸ§": 6595,
      "éªĳçĿĢ": 6596,
      "æĮ£èĦ±": 6597,
      "ä¸Ģåı¥è¯Ŀ": 6598,
      "çĽ²çĽ®": 6599,
      "ä¸įä¹ħ": 6600,
      "èĢį": 6601,
      "åĴĮå¥¹": 6602,
      "è¦ģæĺ¯": 6603,
      "åĲ¬ä¸įè§ģ": 6604,
      "åĸľé¹Ĭ": 6605,
      "æĶ¶èĹı": 6606,
      "çļĦå£°åĵį": 6607,
      "åı¯èĥ½æĺ¯": 6608,
      "æĭ¿èµ·": 6609,
      "å«Į": 6610,
      "æģĲæĢĸ": 6611,
      "æĭĸçĿĢ": 6612,
      "æĦıåĳ³çĿĢ": 6613,
      "çļĦå¸ĮæľĽ": 6614,
      "17": 6615,
      "ä¸ĭéĽª": 6616,
      "è¾Ĺ": 6617,
      "æ±Ĳ": 6618,
      "è®©ä»ĸä»¬": 6619,
      "é«ĺå±±": 6620,
      "éĵħ": 6621,
      "å®īè¯¦": 6622,
      "å¤±è¸ª": 6623,
      "éĿĴå±±": 6624,
      "æĪĳä¸įä¼ļ": 6625,
      "å±ħçĦ¶": 6626,
      "æī¬èµ·": 6627,
      "æ¯¯": 6628,
      "çľĭæĿ¥": 6629,
      "æİĪ": 6630,
      "æ´¼": 6631,
      "èĻĲ": 6632,
      "åįģä¸ī": 6633,
      "åľºæĻ¯": 6634,
      "èľĹ": 6635,
      "éļĲçº¦": 6636,
      "æ³¢æ¶Ľ": 6637,
      "åĩĨç¡®": 6638,
      "æĺĨèĻ«": 6639,
      "æĪĳçªģçĦ¶": 6640,
      "æĹº": 6641,
      "ç»·": 6642,
      "æĬ¼": 6643,
      "å±İ": 6644,
      "è·µ": 6645,
      "çŁĽ": 6646,
      "å²Ĥ": 6647,
      "æħİ": 6648,
      "åĲĥæİī": 6649,
      "èİ½": 6650,
      "çļĦå¿ĥè·³": 6651,
      "å¨Ł": 6652,
      "çļĦå½©": 6653,
      "æ¤Ĵ": 6654,
      "éĶĻè¿ĩ": 6655,
      "åĿļå®ļ": 6656,
      "èĭįèĢģ": 6657,
      "åĵ¥åĵ¥": 6658,
      "èĮĤçĽĽ": 6659,
      "ä¸įæĿ¥": 6660,
      "èĬĿ": 6661,
      "çģ¶": 6662,
      "æĭĻ": 6663,
      "éĥ½å·²": 6664,
      "é£İåľ¨": 6665,
      "éķ¶": 6666,
      "åı¯æĥľ": 6667,
      "æīĵæ¹¿": 6668,
      "æ°Ķæģ¯": 6669,
      "å®ĥä»¬åľ¨": 6670,
      "èĮ§": 6671,
      "ä½İåŀĤ": 6672,
      "çļĦæīĭèĩĤ": 6673,
      "æĪĳä¸įæĥ³": 6674,
      "ä¸Ŀç»¸": 6675,
      "çļĦæŃ£": 6676,
      "åºŁå¼ĥ": 6677,
      "èłķ": 6678,
      "çļĦç¤¼": 6679,
      "å¤©èī²": 6680,
      "çĶŁåĩº": 6681,
      "æķĸ": 6682,
      "è¯´æĺİ": 6683,
      "åģķ": 6684,
      "è§ģè¯ģ": 6685,
      "ä½ĵæ¸©": 6686,
      "çĲĲ": 6687,
      "éħ£": 6688,
      "çĿ¡äºĨ": 6689,
      "éĩİåħ½": 6690,
      "æĭīå¼Ģ": 6691,
      "æ¯«ä¸į": 6692,
      "çļĦçĲ´": 6693,
      "é¢Ŀå¤´": 6694,
      "èľ¿èľĴ": 6695,
      "æ²¼": 6696,
      "æĬĦ": 6697,
      "è¯´äºĨ": 6698,
      "èĬ±åĦ¿": 6699,
      "åĪĨè£Ĥ": 6700,
      "åħ¨ä¸ĸçķĮ": 6701,
      "çıĬ": 6702,
      "æĢİèĥ½": 6703,
      "çļĦå½±": 6704,
      "èĭįèĿĩ": 6705,
      "æŀ¶ä¸Ĭ": 6706,
      "æĹłæķ°ä¸ª": 6707,
      "åı¸æľº": 6708,
      "ç¨»èįī": 6709,
      "è¶ĭ": 6710,
      "é»ĳäºĨ": 6711,
      "æ¯ıå¹´": 6712,
      "è¡£è£³": 6713,
      "å¥ĶåĲĳ": 6714,
      "éĻĪæĹ§": 6715,
      "å¹¿åĳĬ": 6716,
      "éŀĭåŃĲ": 6717,
      "çļĦå¸ĥ": 6718,
      "§æĺ§": 6719,
      "æĪĳæĿ¥": 6720,
      "ä½¿ä½ł": 6721,
      "èĻļç©º": 6722,
      "çļĦåįĬ": 6723,
      "ä¸Ģå®ļæĺ¯": 6724,
      "æĳĬå¼Ģ": 6725,
      "åıĻè¿°": 6726,
      "çļĦèī²å½©": 6727,
      "æĪĳè§īå¾Ĺ": 6728,
      "èĩªæĿĢ": 6729,
      "çĪ±çĿĢ": 6730,
      "æĹ¥å¸¸": 6731,
      "çļĦä¸Ģç§į": 6732,
      "åĪ«çļĦ": 6733,
      "çĥŃéĹ¹": 6734,
      "çļĦåĨ²": 6735,
      "ç±»ä¼¼": 6736,
      "é»ĳå¤ľéĩĮ": 6737,
      "çļĦæ¸©åº¦": 6738,
      "¤çº·": 6739,
      "æĹłéľĢ": 6740,
      "å¥½çľĭ": 6741,
      "åħ¥äºĨ": 6742,
      "æ·±éĻ·": 6743,
      "å¾®é£İ": 6744,
      "åĳ³éģĵ": 6745,
      "çļĦèĬ±çĵ£": 6746,
      "æļ´éľ²": 6747,
      "çļĦæİĮ": 6748,
      "çĿ«æ¯Ľ": 6749,
      "çļĦæľĪ": 6750,
      "çļĦçļ®èĤ¤": 6751,
      "å·į": 6752,
      "æİĲ": 6753,
      "æļĳ": 6754,
      "èº«ä»½": 6755,
      "æīĭæİĮ": 6756,
      "çº¢äºĨ": 6757,
      "èĿĻèĿł": 6758,
      "é±¼åĦ¿": 6759,
      "çŀª": 6760,
      "ä½łçļĦåĲįåŃĹ": 6761,
      "é¸¡èĽĭ": 6762,
      "æĶ¿åºľ": 6763,
      "çļĦåĿļ": 6764,
      "æĳĺä¸ĭ": 6765,
      "åĢĺèĭ¥": 6766,
      "Ħé»ĺ": 6767,
      "ıæĤĶ": 6768,
      "ä¸Ģä¸²": 6769,
      "ä¸Ģåī¯": 6770,
      "æĪĳä¹Łä¸į": 6771,
      "åľ¨å®¶": 6772,
      "æ¸£": 6773,
      "ä¹ĭäºº": 6774,
      "åĽŀå½Ĵ": 6775,
      "æĺ¥æ°´": 6776,
      "æĽ´å¤§": 6777,
      "åĲ¬åĪ°äºĨ": 6778,
      "åįģä¸ĩ": 6779,
      "çļĦå¿ĥäºĭ": 6780,
      "èĿİ": 6781,
      "çİ²": 6782,
      "éĽ¨æ»´": 6783,
      "å°Ĩä½ł": 6784,
      "æ·±åĪ»": 6785,
      "ä½ıæĪĳ": 6786,
      "çļĦæīĭæİĮ": 6787,
      "æ¹¿æ¼ī": 6788,
      "èĦ±ç¦»": 6789,
      "åļ·": 6790,
      "åĿ¡ä¸Ĭ": 6791,
      "çļĦå²Ľ": 6792,
      "çļĦæĪ¿éĹ´": 6793,
      "æĪ³": 6794,
      "åĳ»åĲŁ": 6795,
      "çĶŁçĶŁ": 6796,
      "å°±ä¸į": 6797,
      "è¿ĺç»Ļ": 6798,
      "åıĪè¢«": 6799,
      "é£ŀåĩº": 6800,
      "åı¶çīĩ": 6801,
      "çļĦèº«åŃĲ": 6802,
      "è¿Ļæĺ¯æĪĳ": 6803,
      "çļĦé»ĳèī²": 6804,
      "ç´«æ²«": 6805,
      "ç¹ģåįİ": 6806,
      "æ··ä¹±": 6807,
      "åĽºæī§": 6808,
      "çļĦå²©": 6809,
      "ä¸Ģä»½": 6810,
      "æĪĳçľŁ": 6811,
      "å¦¥": 6812,
      "å°ıå§Ĳ": 6813,
      "æĹ¥åĩº": 6814,
      "æıª": 6815,
      "é¥¶": 6816,
      "çļĦé¢¤": 6817,
      "æ¶ĤæĬ¹": 6818,
      "æįķæįī": 6819,
      "è´ªå©ª": 6820,
      "èģªæĺİ": 6821,
      "æĪĳä¸º": 6822,
      "çļĦåĥ": 6823,
      "åĨ½": 6824,
      "å¼Ģåĩº": 6825,
      "äºİæĪĳ": 6826,
      "éĿ¢åŃĶ": 6827,
      "æļĹæ·¡": 6828,
      "åĿĲä¸ĭ": 6829,
      "ç¨ł": 6830,
      "çļĦèĦĸ": 6831,
      "èĤīèº«": 6832,
      "å¼ºçĥĪ": 6833,
      "å®ĪæĬ¤": 6834,
      "ä¹łæĥ¯äºĨ": 6835,
      "æ¸ºå°ı": 6836,
      "ä¸įçĦ¶": 6837,
      "æµģçĿĢ": 6838,
      "æīĵçĶµè¯Ŀ": 6839,
      "è½¦ç«Ļ": 6840,
      "çļĦå¹²": 6841,
      "ä¿ĿçķĻ": 6842,
      "çļĦå¯Ĩ": 6843,
      "çļĦç¼ĿéļĻ": 6844,
      "³èĨĬ": 6845,
      "»è¾ĳ": 6846,
      "æĪĳæŃ£": 6847,
      "æ¸į": 6848,
      "åĵ®": 6849,
      "ä»¥æĿ¥": 6850,
      "å¾Īå¤§": 6851,
      "åĺ±": 6852,
      "æķ°åŃĹ": 6853,
      "æ½ĩ": 6854,
      "å¢Ļè§Ĵ": 6855,
      "ç¥ĸæ¯į": 6856,
      "æĦŁè§īåĪ°": 6857,
      "èŁ¹": 6858,
      "æİ§åĪ¶": 6859,
      "ºçī²": 6860,
      "æĪĳèµ°": 6861,
      "æ²¡æĥ³": 6862,
      "æ±©": 6863,
      "æ·±æ²ī": 6864,
      "åľºä¸Ĭ": 6865,
      "éŃħ": 6866,
      "èľ»èľĵ": 6867,
      "éĻ¤éĿŀ": 6868,
      "ä¹Łè®¸æĺ¯": 6869,
      "èĥ¸åı£": 6870,
      "èĢĢçľ¼": 6871,
      "çļĦåĢĴå½±": 6872,
      "¾æ°Ķ": 6873,
      "åľ¨æĹ¶éĹ´": 6874,
      "åıªåī©": 6875,
      "æķĽ": 6876,
      "çĽ¸æĢĿ": 6877,
      "æ¢¦å¹»": 6878,
      "æ£ķ": 6879,
      "ç´§éĹŃ": 6880,
      "ç»ĨèĬĤ": 6881,
      "éĽ¾ä¸Ń": 6882,
      "åĪĴè¿ĩ": 6883,
      "çļĦåºķ": 6884,
      "çļĦç¨»": 6885,
      "ä¸Ģéĥ¨": 6886,
      "åľ¨èĩªå·±": 6887,
      "çļĦèİ": 6888,
      "ç§įæ¤į": 6889,
      "å¤ªå¤ª": 6890,
      "çº¢å°ĺ": 6891,
      "åı«çĿĢ": 6892,
      "æĪĳæĺ¯ä¸Ģä¸ª": 6893,
      "çīµçĿĢ": 6894,
      "æĪĳåıĳçİ°": 6895,
      "èĢĮå·²": 6896,
      "æīĭæľ¯": 6897,
      "å¾Īå°ĳ": 6898,
      "çļĦèĤļ": 6899,
      "çļĦæµ·æ´ĭ": 6900,
      "ç¹ģæ®ĸ": 6901,
      "ä¸įè¿ľ": 6902,
      "äºĨæĪĳä»¬": 6903,
      "çļĦçĦ": 6904,
      "ä¹ĭæĹ¶": 6905,
      "çĻ½æĹ¥": 6906,
      "æĻļéľŀ": 6907,
      "éģĹå¤±": 6908,
      "çļĦèĦ¸åºŀ": 6909,
      "éģ®èĶ½": 6910,
      "çļĦæŁĶ": 6911,
      "çļĦæ¸¸æĪı": 6912,
      "ä¸Ģç¬ĳ": 6913,
      "çļĦæ©": 6914,
      "é»Ŀ": 6915,
      "ä¹ĭéĻħ": 6916,
      "ç¦½": 6917,
      "åĶ®": 6918,
      "å¾Īéķ¿": 6919,
      "æį·": 6920,
      "åıĺå½¢": 6921,
      "ä½¿åĬ²": 6922,
      "çļĦæĥ³æ³ķ": 6923,
      "çļĦæĢĢæĬ±": 6924,
      "ä»Ĩ": 6925,
      "çļĦèĹ": 6926,
      "æŃī": 6927,
      "åŃĲåľ¨": 6928,
      "æŁ¯": 6929,
      "ç«Ļèµ·æĿ¥": 6930,
      "éĨĴäºĨ": 6931,
      "åħ¬èĭ±": 6932,
      "åĲĪä¸Ĭ": 6933,
      "æľīäººè¯´": 6934,
      "æ»ļçĥ«": 6935,
      "å®¤éĩĮ": 6936,
      "é¢¤æłĹ": 6937,
      "çļĦæĥħç»ª": 6938,
      "çĪ¶æ¯įå®¶": 6939,
      "æĺĶæĹ¥": 6940,
      "çļĦå»º": 6941,
      "æĪĳä»¥ä¸º": 6942,
      "æĪĳæĦ¿æĦı": 6943,
      "å¹¢": 6944,
      "å¤©äº®": 6945,
      "åĩºåı£": 6946,
      "çĥĺ": 6947,
      "çĤ¹äº®": 6948,
      "çŁ¥è¯Ĩ": 6949,
      "é©¯": 6950,
      "éĴ©": 6951,
      "è°ģæĺ¯": 6952,
      "åį´åľ¨": 6953,
      "ç¬ĳå£°": 6954,
      "åĮĹé£İ": 6955,
      "è¿·æģĭ": 6956,
      "çļĦç¾¤": 6957,
      "åĩĮä¹±": 6958,
      "ç°Į": 6959,
      "æ³Ľæ»¥": 6960,
      "åĿŁå¢ĵ": 6961,
      "çļĦæĽ²": 6962,
      "å¬ī": 6963,
      "ä¸ĢåľĪ": 6964,
      "ä¸įå°ĳ": 6965,
      "è¯¢": 6966,
      "ç»ļ": 6967,
      "ä»ĸå°±": 6968,
      "åīĸ": 6969,
      "å¿ĥå¤´": 6970,
      "èĲį": 6971,
      "æĹ¥èĲ½": 6972,
      "è®©èĩªå·±": 6973,
      "åĨįåº¦": 6974,
      "ä¸ĩå¹´": 6975,
      "å¿«è¦ģ": 6976,
      "æĮĩçĶ²": 6977,
      "å®Ľå¦Ĥ": 6978,
      "å¸½åŃĲ": 6979,
      "å®¶ä¼Ļ": 6980,
      "åĨ·åĨ·": 6981,
      "çĶŁåĳ½çļĦ": 6982,
      "é¦ĸåħĪ": 6983,
      "åıįå¯¹": 6984,
      "é²ľçº¢": 6985,
      "æĬĺåıł": 6986,
      "æ³īæ°´": 6987,
      "éŁ§": 6988,
      "èģĬå¤©": 6989,
      "æµĳæµĬ": 6990,
      "èįĨæ£ĺ": 6991,
      "çłĶç©¶": 6992,
      "ä¸Ģä¸ªçĶ·äºº": 6993,
      "è¦ģä¹Ī": 6994,
      "å¤ļæķ°": 6995,
      "äº²è¿ĳ": 6996,
      "å½¢å¼ı": 6997,
      "å¢ĵç¢ĳ": 6998,
      "çļĦç¬ĳå£°": 6999,
      "è¹²åľ¨": 7000,
      "ä¼ªè£ħ": 7001,
      "çļĦèĲ½åı¶": 7002,
      "èľ¡çĥĽ": 7003,
      "çļĦæ¿Ģæĥħ": 7004,
      "æĥ¹": 7005,
      "ä»ĸä¸į": 7006,
      "ä¸ĭå±±": 7007,
      "å¦Ĵ": 7008,
      "å¦Ĥæ°´": 7009,
      "èĢĮè¡Į": 7010,
      "åĿİ": 7011,
      "çĤ½": 7012,
      "æ¢§æ¡Ĳ": 7013,
      "çĤ¹éĴŁ": 7014,
      "å°ĳçĪ·": 7015,
      "æ¹®": 7016,
      "çļĦå¿µ": 7017,
      "è±¡å¾ģ": 7018,
      "ç»ĵå±Ģ": 7019,
      "ä¼łç»Ł": 7020,
      "åħĭæĸĩ": 7021,
      "å®īéĿĻåľ°": 7022,
      "çļĦæĦıå¿Ĺ": 7023,
      "æĤĦæĤĦåľ°": 7024,
      "ä¼ģåĽ¾": 7025,
      "ä¸Ģçľĭ": 7026,
      "æĪĳè¿Ļ": 7027,
      "æľīåĬĽ": 7028,
      "å¼§": 7029,
      "æĬĬå®ĥä»¬": 7030,
      "è°ģéĥ½": 7031,
      "âĢ¦âĢ¦âĢ¦âĢ¦": 7032,
      "æĪĳçļĦè¯Ĺ": 7033,
      "çļĦçĪ±äºº": 7034,
      "åĮĨå¿Ļ": 7035,
      "è´´çĿĢ": 7036,
      "å§¿åĬ¿": 7037,
      "çĽ¯çĿĢ": 7038,
      "çļĦéķľåŃĲ": 7039,
      "å¤§å±±": 7040,
      "èĩªåľ¨": 7041,
      "åĿĿ": 7042,
      "ä»ĸä»¬çļĦ": 7043,
      "é£ŀåĲĳ": 7044,
      "çīĩåĪ»": 7045,
      "è¨Ģè¯Ń": 7046,
      "æ¼«æŃ¥": 7047,
      "çĶ°éĩĮ": 7048,
      "å®ĹæķĻ": 7049,
      "åĸĤåħ»": 7050,
      "é»¯æ·¡": 7051,
      "çļĦåı«å£°": 7052,
      "ä¸įå®Į": 7053,
      "çĶ³": 7054,
      "æ²¥": 7055,
      "å£°åĵį": 7056,
      "æŃ¤åľ°": 7057,
      "ä¸īå¹´": 7058,
      "æĶ¾å¿ĥ": 7059,
      "ä¸ĸçķĮä¸Ĭ": 7060,
      "è¿·äºº": 7061,
      "çļĦåģĩ": 7062,
      "æĪĳåĨĻ": 7063,
      "å¤ļæĥħ": 7064,
      "æĬĬå¥¹": 7065,
      "èĻ¾": 7066,
      "æĦıå¿Ĺ": 7067,
      "ç»¿åı¶": 7068,
      "å¤ıåŃ£": 7069,
      "ç»³åŃĲ": 7070,
      "è¾¨è®¤": 7071,
      "çļĦæĳĩ": 7072,
      "åĳĲåĸĬ": 7073,
      "åľ¨ä¸Ĭ": 7074,
      "åľ¨å¤ľ": 7075,
      "æĺ¯æľĢ": 7076,
      "æłħæłı": 7077,
      "åĩºèµ°": 7078,
      "èĩªè¯Ń": 7079,
      "èµ·èĪŀ": 7080,
      "èµ·åºĬ": 7081,
      "æĺİåªļ": 7082,
      "ç¿ģ": 7083,
      "æľµæ¸Ķ": 7084,
      "æĹ©é¤Ĳ": 7085,
      "åĲ¹çĿĢ": 7086,
      "äº¤éĶĻ": 7087,
      "æµªè´¹": 7088,
      "çļĦæķĮ": 7089,
      "æİ©çĽĸ": 7090,
      "ç»³ç´¢": 7091,
      "çĦ¦èĻĳ": 7092,
      "çļĦè¯Ń": 7093,
      "æĪĳæĢ»æĺ¯": 7094,
      "ãĢĩ": 7095,
      "è¿Ļé¦ĸè¯Ĺ": 7096,
      "å±ī": 7097,
      "è·¯äºº": 7098,
      "å¾Ģä¸ĭ": 7099,
      "åİŁåľ°": 7100,
      "æķ´é½Ĳ": 7101,
      "åŀ«": 7102,
      "çļĦé»İ": 7103,
      "å·¥äºº": 7104,
      "æĬĺç£¨": 7105,
      "æĵ¦æĭŃ": 7106,
      "199": 7107,
      "çļĦè£Ļ": 7108,
      "çļĦèıľ": 7109,
      "ä¸įè¶³": 7110,
      "æ°´æĻ¶": 7111,
      "æĥħæĦŁ": 7112,
      "è·¯çģ¯": 7113,
      "æŃ»ç¥ŀ": 7114,
      "å°ĨæĿ¥": 7115,
      "åįģä¹Ŀ": 7116,
      "åģļçļĦ": 7117,
      "å°±æĺ¯è¿Ļæł·": 7118,
      "çĨĻ": 7119,
      "æ¬¢åĸľ": 7120,
      "çļĦæ°¸": 7121,
      "æĿĳéĩĮ": 7122,
      "é£ĺèį¡": 7123,
      "è¿ĻäºĽå¹´": 7124,
      "è¿½æ±Ĥ": 7125,
      "ç¦»å¼ĢäºĨ": 7126,
      "çº¯åĩĢ": 7127,
      "èĪĴæľį": 7128,
      "çļĦå±ĭé¡¶": 7129,
      "æĥŁæľī": 7130,
      "åľ¨è·¯ä¸Ĭ": 7131,
      "äºĨä¸¤": 7132,
      "ç»ŀ": 7133,
      "çļĦèĥ½": 7134,
      "æĸĵ": 7135,
      "å°ıè·¯": 7136,
      "èĢĮèµ·": 7137,
      "å¯¹å²¸": 7138,
      "å¹³å®ī": 7139,
      "åħ³ä¸Ĭ": 7140,
      "å¿«åľ°": 7141,
      "åıįæŃ£": 7142,
      "çļĦéĽ·": 7143,
      "æıĲèµ·": 7144,
      "ä¼¸åĲĳ": 7145,
      "çļĦæĪ¿åŃĲ": 7146,
      "æĺ¯è¢«": 7147,
      "ä½łè¿Ļ": 7148,
      "çļĦç¹ģ": 7149,
      "æ²ĥ": 7150,
      "ä¿ŀ": 7151,
      "éķ¿åıĳ": 7152,
      "äº²åĪĩ": 7153,
      "å§Ĭ": 7154,
      "èĽ¾": 7155,
      "æ¥¼ä¸Ĭ": 7156,
      "å½Ĵäºİ": 7157,
      "çīĽç¾Ĭ": 7158,
      "èĦ±ä¸ĭ": 7159,
      "æĭįæīĵ": 7160,
      "ç¼ĿéĩĮ": 7161,
      "çĹķè¿¹": 7162,
      "åķ¦åķ¦": 7163,
      "åŃ¦ä¼ļäºĨ": 7164,
      "çļĦåı¹æģ¯": 7165,
      "ä½ĳ": 7166,
      "ä¸įæĪĲ": 7167,
      "è¿ĩä½ł": 7168,
      "åıĳåĳĨ": 7169,
      "æ°¸ä¹ħ": 7170,
      "èı²": 7171,
      "éĵģè½¨": 7172,
      "æĽ²æĬĺ": 7173,
      "å¹¿éĺĶ": 7174,
      "æ®ĭéħ·": 7175,
      "çļĦæģĭ": 7176,
      "è®¨è®º": 7177,
      "æķıæĦŁ": 7178,
      "çļĦéĹªçĶµ": 7179,
      "çļĦè¯įè¯Ń": 7180,
      "ä¸įç»Ŀ": 7181,
      "å®µ": 7182,
      "å¦ĵ": 7183,
      "èĢĮåľ¨": 7184,
      "å£ĳ": 7185,
      "è¿ľäºĨ": 7186,
      "ç¼¤çº·": 7187,
      "ä¸ĸä¿Ĺ": 7188,
      "é£ŀåİ»": 7189,
      "ä½Ĩå®ĥ": 7190,
      "ä½ľåĵģ": 7191,
      "æľ¬å°ĳçĪ·": 7192,
      "èİº": 7193,
      "è·Łåīį": 7194,
      "åĩºæĿ¥äºĨ": 7195,
      "æ»ĳèĲ½": 7196,
      "æı¡çĿĢ": 7197,
      "ä¸Ģéĺµé£İ": 7198,
      "éĴ»è¿Ľ": 7199,
      "çļĦè°İ": 7200,
      "çļĦåĬ¨ä½ľ": 7201,
      "çĦļçĥ§": 7202,
      "æ¹¿æ¼īæ¼ī": 7203,
      "ä¸Ģä¸ªåŃ©åŃĲ": 7204,
      "çĤ«": 7205,
      "æ²¡æľīä»»ä½ķ": 7206,
      "è´¼": 7207,
      "æ¡ł": 7208,
      "æ·±æĥħ": 7209,
      "çĽ¸ä¼¼": 7210,
      "èħķ": 7211,
      "æ¸ħèĦĨ": 7212,
      "ç¾İå¦Ļ": 7213,
      "æĶ¾è¿Ľ": 7214,
      "æ¹ĺ": 7215,
      "çģ¯ç¬¼": 7216,
      "å®¢åİħ": 7217,
      "æĺ¾ç¤º": 7218,
      "çĪĨçĤ¸": 7219,
      "æĺ¼å¤ľ": 7220,
      "ĳèıĩ": 7221,
      "ä¸Ģå°ģ": 7222,
      "æĥĺ": 7223,
      "è¿Ļåľº": 7224,
      "çĶŁäº§": 7225,
      "å°±è¢«": 7226,
      "ä¹ŁæĽ¾": 7227,
      "å¹´é¾Ħ": 7228,
      "è¿ľè¡Į": 7229,
      "çĹĽåĵŃ": 7230,
      "æĳĩå¤´": 7231,
      "èĳĹ": 7232,
      "çļĦæ³¨": 7233,
      "æķ²åĵį": 7234,
      "è¿Łçĸĳ": 7235,
      "çļĦé¢Ŀå¤´": 7236,
      "çļĦä¸Ńå¿ĥ": 7237,
      "åľ¨éĽª": 7238,
      "åľ¨å¤©ä¸Ĭ": 7239,
      "ä¸įç¦ģ": 7240,
      "æľīåĩł": 7241,
      "ä½łå¥½": 7242,
      "å¦¨": 7243,
      "æŀĲ": 7244,
      "å½ĵæĪĲ": 7245,
      "åįģä¸ĥ": 7246,
      "ç®«": 7247,
      "æ¸ħæ´Ĺ": 7248,
      "å¤±æľĽ": 7249,
      "èļķ": 7250,
      "ä»įæĺ¯": 7251,
      "é¢¤åĬ¨": 7252,
      "ç¼©å°ı": 7253,
      "æĮĸæİĺ": 7254,
      "éĴīåŃĲ": 7255,
      "çļĦåĸīåĴĻ": 7256,
      "èĢģå¹´": 7257,
      "æŃ»çļĦ": 7258,
      "çľ¼éķľ": 7259,
      "æ°Ķåĳ³": 7260,
      "æ²³éĩĮ": 7261,
      "åŀ®": 7262,
      "åĤ¨": 7263,
      "åĤħ": 7264,
      "æĬ½è±¡": 7265,
      "é¡ºä¾¿": 7266,
      "çļĦèĭ¹æŀľ": 7267,
      "æĬ«çĿĢ": 7268,
      "çļĦèĮ¶": 7269,
      "çļĦéŃĶ": 7270,
      "å¾ªçİ¯": 7271,
      "çļĦé»İæĺİ": 7272,
      "ä¸Ģé¡µ": 7273,
      "ä½łæĺ¯æĪĳ": 7274,
      "æ·ĺ": 7275,
      "å°Ĩèĩªå·±": 7276,
      "ç»Ļèĩªå·±": 7277,
      "æĶ¾å¤§": 7278,
      "ä½İä½İ": 7279,
      "çİĭæķĸ": 7280,
      "çļĦå¼Ĥ": 7281,
      "çļĦèħ¿": 7282,
      "æĻ´æľĹ": 7283,
      "çļĦèĥ¸èĨĽ": 7284,
      "åŃĿ": 7285,
      "çľ·": 7286,
      "ä»ĸè¦ģ": 7287,
      "ä¸ĭçıŃ": 7288,
      "åĿĬ": 7289,
      "æļĹç¤º": 7290,
      "åĪĩåī²": 7291,
      "å¹²æŀ¯": 7292,
      "çļĦæ°ĳ": 7293,
      "çļĦèĬ³": 7294,
      "èįĴéĩİ": 7295,
      "çĺª": 7296,
      "å®«æ®¿": 7297,
      "æĿĥåĬĽ": 7298,
      "ä¸ĳéĻĭ": 7299,
      "Ŀçģ«": 7300,
      "å®ĥå°±": 7301,
      "è¯´ä»Ģä¹Ī": 7302,
      "è°¬": 7303,
      "è¯ĹéĽĨ": 7304,
      "æĮĩåĲĳ": 7305,
      "çĽ®çļĦ": 7306,
      "çļĦæ¸´": 7307,
      "ä¼¸å±ķ": 7308,
      "ä¸įåĨįæĺ¯": 7309,
      "è·ĮèĲ½": 7310,
      "å¤ªå¹³æ´ĭ": 7311,
      "æĪĳçļĦçľ¼çĿĽ": 7312,
      "ä¸įä¸Ģæł·": 7313,
      "ä¸įä»ħ": 7314,
      "äºĨå®ĥ": 7315,
      "æľīè°ģ": 7316,
      "æĿ¥åĲ§": 7317,
      "åıªæĥ³": 7318,
      "åĽŀå£°": 7319,
      "åįģåħŃ": 7320,
      "ä¸įæĺ¯æĪĳ": 7321,
      "åĺī": 7322,
      "æĥĬè®¶": 7323,
      "éĻ¢éĩĮ": 7324,
      "çļĦæ¢¦éĩĮ": 7325,
      "æĿĢäºº": 7326,
      "çļĦè¯Ŀè¯Ń": 7327,
      "å¡«æ»¡": 7328,
      "æº¢åĩº": 7329,
      "çļĦçł´": 7330,
      "çļĦåĪĨ": 7331,
      "çļĦè¨Ģ": 7332,
      "æĿ¥æĹ¶": 7333,
      "è§Ī": 7334,
      "åĵĦ": 7335,
      "å±±æ²³": 7336,
      "æľĽè§ģ": 7337,
      "æĽ´ä¸º": 7338,
      "äºĳå±Ĥ": 7339,
      "çļĦæµ®": 7340,
      "åħ«æĸ¹": 7341,
      "èĶ¡": 7342,
      "è®¸å¤ļäºº": 7343,
      "ä¼ĺç¾İ": 7344,
      "çļĦåĬ¨çī©": 7345,
      "çļĦé¬¼": 7346,
      "å¤Ń": 7347,
      "åħ¼": 7348,
      "é£İéĽª": 7349,
      "éķ¿çĿĢ": 7350,
      "ä»Ģä¹Īæĺ¯": 7351,
      "åĲĮä¸Ģ": 7352,
      "é»ĳæļĹéĩĮ": 7353,
      "æĳĨèĦ±": 7354,
      "çļĦå¦»åŃĲ": 7355,
      "èº¬": 7356,
      "å¯¹æĪĳè¯´": 7357,
      "æĸ¹éĹ²": 7358,
      "åĨĻåľ¨": 7359,
      "æ²ĻåŃĲ": 7360,
      "èĽ°": 7361,
      "èĭ¦æ¶©": 7362,
      "å¯»è§ħ": 7363,
      "éģĹæĨ¾": 7364,
      "åıĸæļĸ": 7365,
      "æķĻèĤ²": 7366,
      "è°¢è°¢": 7367,
      "æĲºå¸¦": 7368,
      "æĸ¹éĹ²æµ·": 7369,
      "åĲķ": 7370,
      "ä¸įæĢķ": 7371,
      "ä»ĸäºº": 7372,
      "å¤§å°ı": 7373,
      "å¸ķ": 7374,
      "åĥıä½ł": 7375,
      "æĹ¥æ¸Ĳ": 7376,
      "åĦ¿å¥³": 7377,
      "æ´»åĬ¨": 7378,
      "ç²¼": 7379,
      "æļĹä¸Ń": 7380,
      "äºĨä¸ĢäºĽ": 7381,
      "åı¤åħ¸": 7382,
      "èĵĿèī²çļĦ": 7383,
      "åĵŃäºĨ": 7384,
      "æ§Ľ": 7385,
      "åħĶåŃĲ": 7386,
      "çļĦéŃĤ": 7387,
      "éĥ½å¸Ĥ": 7388,
      "éħ±": 7389,
      "äºĳå½©": 7390,
      "å½±åĵį": 7391,
      "æ£±": 7392,
      "æķ£å¼Ģ": 7393,
      "ä½İçŁ®": 7394,
      "æ¤ħä¸Ĭ": 7395,
      "æ©¡": 7396,
      "çļĦæ³¢æµª": 7397,
      "çĿ£": 7398,
      "è¯´è¿ĩ": 7399,
      "æĬĬæīĭ": 7400,
      "èĬ±èĬ±": 7401,
      "å®¶äºº": 7402,
      "åķ¾": 7403,
      "å¤±èĲ½": 7404,
      "çªĹåŃĲ": 7405,
      "åĻ©": 7406,
      "èººä¸ĭ": 7407,
      "çļĦæ±ī": 7408,
      "ç½ªæģ¶": 7409,
      "äºĭå®ŀä¸Ĭ": 7410,
      "ç¾¡æħķ": 7411,
      "in": 7412,
      "ä¸Ģå¤Ħ": 7413,
      "è¿¸": 7414,
      "åľ¨å°ı": 7415,
      "åı¦ä¸Ģåıª": 7416,
      "æŀĿåı¶": 7417,
      "çļĦæ¯Ĵ": 7418,
      "äºīåĲµ": 7419,
      "æ¡ĮåŃĲ": 7420,
      "çļĦæĢĿå¿µ": 7421,
      "çļĦç½ĳ": 7422,
      "çļĦçŃī": 7423,
      "åĩ¤åĩ°": 7424,
      "èĲ¤çģ«": 7425,
      "äºĨåĲ§": 7426,
      "å¿ıæĤĶ": 7427,
      "åĿį": 7428,
      "èĭŀ": 7429,
      "å°Ĩè¦ģ": 7430,
      "çĲ³": 7431,
      "æ·±éĤĥ": 7432,
      "èĥĮå½±": 7433,
      "æķħæĦı": 7434,
      "çļĦèį¯": 7435,
      "çļĦèįīåİŁ": 7436,
      "å¦ĩäºº": 7437,
      "è½½çĿĢ": 7438,
      "èªī": 7439,
      "æĪĳè¯¥": 7440,
      "ä¹Łå¥½": 7441,
      "æĹłè¯Ń": 7442,
      "å·²åľ¨": 7443,
      "é»ĳçļĦ": 7444,
      "æ¼©æ¶¡": 7445,
      "çħİ": 7446,
      "æĢĿç´¢": 7447,
      "æķ´å¤ľ": 7448,
      "åĹĴ": 7449,
      "çŃĶæ¡Ī": 7450,
      "çļĦèĥĮåĲİ": 7451,
      "çļĦçªĹåı£": 7452,
      "çļĦèĤ©èĨĢ": 7453,
      "æĺ¯ä»İ": 7454,
      "èĬ¯": 7455,
      "å°ıèįī": 7456,
      "è¯´åĪ°": 7457,
      "è¿ĺåİŁ": 7458,
      "èĲ½èĬ±": 7459,
      "éŁ³ç¬¦": 7460,
      "æ¯Ķåĸ»": 7461,
      "å¾Ģåīį": 7462,
      "è§£æĶ¾": 7463,
      "ä½İå¤Ħ": 7464,
      "é£ĺè¿ĩ": 7465,
      "ä»įæĹ§": 7466,
      "çļĦèĭ±": 7467,
      "æºªæ°´": 7468,
      "å³¡è°·": 7469,
      "çļĦå°ĳå¹´": 7470,
      "çļĦçĿ¡çľł": 7471,
      "äºı": 7472,
      "ä¸įè¯´è¯Ŀ": 7473,
      "æľīé£İ": 7474,
      "ç»Ĭ": 7475,
      "å¾Ļ": 7476,
      "å¤§æłĳ": 7477,
      "ä¸ºèĩªå·±": 7478,
      "èĲĮ": 7479,
      "é«ĺå¤§": 7480,
      "çģ«æŁ´": 7481,
      "çĨĶ": 7482,
      "åŀĽ": 7483,
      "é¦Ļæ°Ķ": 7484,
      "åĽłä¸ºæĪĳ": 7485,
      "è£ħæ»¡": 7486,
      "éķľåŃĲéĩĮ": 7487,
      "èıľèĬ±": 7488,
      "ä¸ºä»Ģä¹Īè¦ģ": 7489,
      "é¡¾åģķ": 7490,
      "åĵĢä¼¤": 7491,
      "æĿľé¹ĥ": 7492,
      "æ¢¨èĬ±": 7493,
      "åĸĩåıŃ": 7494,
      "ä¸Ģç¢Ĺ": 7495,
      "è¯Ĭ": 7496,
      "æĸ©": 7497,
      "è¢ľ": 7498,
      "æŃ£å¸¸": 7499,
      "æ¯ıæĹ¥": 7500,
      "çŁ³ä¸Ĭ": 7501,
      "æ¹Ľ": 7502,
      "æ¶ĪåĮĸ": 7503,
      "å³»": 7504,
      "èįĴåİŁ": 7505,
      "çĳŀ": 7506,
      "åŀĤä¸ĭ": 7507,
      "èº²éģ¿": 7508,
      "å§Ĳå¦¹": 7509,
      "åĪĺäºļ": 7510,
      "ç¬¬äºĮå¤©": 7511,
      "çļĦå¾Ģäºĭ": 7512,
      "·èĸĩ": 7513,
      "çļĦç»ı": 7514,
      "çļĦåľ£": 7515,
      "çļĦçĶ°éĩİ": 7516,
      "åŃĲåŃĻ": 7517,
      "å°±è¿Ļä¹Ī": 7518,
      "çĪ¹": 7519,
      "å¾Ĺä»¥": 7520,
      "çĻ½çº¸": 7521,
      "è¡ĮåĬ¨": 7522,
      "éĿĴèĭĶ": 7523,
      "æĴ¼": 7524,
      "å°½äºĨ": 7525,
      "åĨ°éĽª": 7526,
      "è¡¨æ¼Ķ": 7527,
      "æĬķåħ¥": 7528,
      "ä»İæĿ¥æ²¡æľī": 7529,
      "çļĦæĽ´": 7530,
      "ä¸Ĳ": 7531,
      "æĪĳæĽ´": 7532,
      "åĲģ": 7533,
      "åħĨ": 7534,
      "çļĦèĸ": 7535,
      "åĴı": 7536,
      "åĥ»": 7537,
      "çĻ½çļĦ": 7538,
      "åĨįæĿ¥": 7539,
      "éľĵ": 7540,
      "å¾Īéļ¾": 7541,
      "ä½¿æĪĳä»¬": 7542,
      "æ±Łæ²³": 7543,
      "åħĪåıĳ": 7544,
      "å¯Ĩå¯Ĩ": 7545,
      "çļĦé£İæļ´": 7546,
      "çļĦé¢Ħ": 7547,
      "éĢĥäº¡": 7548,
      "æĺ¾çĦ¶": 7549,
      "çļĦçģ«è½¦": 7550,
      "æİ©é¥°": 7551,
      "è®¡ç®Ĺ": 7552,
      "åĶĲæľĿ": 7553,
      "çļĦæ¸©æŁĶ": 7554,
      "ç§ĴéĴŁ": 7555,
      "æĬĳæĪĸ": 7556,
      "æľīæĪĳ": 7557,
      "çļĦèĴ": 7558,
      "æĹłçĶ¨": 7559,
      "åıªä¼ļ": 7560,
      "åĲĳè¥¿": 7561,
      "æĺ¯ä¸Ģåľº": 7562,
      "èİİ": 7563,
      "å¤įåĪ¶": 7564,
      "æĿĳåŃĲ": 7565,
      "èĳĽ": 7566,
      "å®¢äºº": 7567,
      "çļĦæłĳæľ¨": 7568,
      "å¹½çģµ": 7569,
      "èķ´": 7570,
      "çļĦè£Ĥ": 7571,
      "çļĦé¼»": 7572,
      "æĪĳä¾¿": 7573,
      "æīī": 7574,
      "æ²ģ": 7575,
      "ç§©åºı": 7576,
      "åīĥ": 7577,
      "æĽĻ": 7578,
      "èµ°å¤±": 7579,
      "èĦ¯": 7580,
      "æļ§æĺ§": 7581,
      "å¥½å¥ĩ": 7582,
      "çĻ½èī²çļĦ": 7583,
      "ç¬Ĩ": 7584,
      "æ¶¤": 7585,
      "é¡·": 7586,
      "é¦ĻçĥŁ": 7587,
      "çĥŃæ°Ķ": 7588,
      "æĶ¶éĽĨ": 7589,
      "è£ħé¥°": 7590,
      "è®²è¿°": 7591,
      "èħĲæľ½": 7592,
      "çĭĲçĭ¸": 7593,
      "çļĦèĦĳè¢ĭ": 7594,
      "ä¸ĢåĽŀ": 7595,
      "ä»Ĺ": 7596,
      "æĪĳçļĦçģµéŃĤ": 7597,
      "åľ¨é»Ħæĺı": 7598,
      "ãĢĤï¼ī": 7599,
      "è·ĭ": 7600,
      "åĶ§": 7601,
      "æı´": 7602,
      "åĨĻç»Ļ": 7603,
      "çĨı": 7604,
      "åįĹå±±": 7605,
      "è¿ŀç»µ": 7606,
      "éĺ¿æ¯Ľ": 7607,
      "æİĴåĪĹ": 7608,
      "çŃīå¾ħçĿĢ": 7609,
      "çļĦåºĦ": 7610,
      "è£¸ä½ĵ": 7611,
      "çļĦéĿ¢å®¹": 7612,
      "åľ¨æ°´ä¸Ń": 7613,
      "çļĦèħ¹": 7614,
      "ç¤¾åĮº": 7615,
      "çļĦæĤ²åĵĢ": 7616,
      "çļĦæµģæ°´": 7617,
      "çļĦåįĪåĲİ": 7618,
      "çĢĳå¸ĥ": 7619,
      "ä½łåıĪ": 7620,
      "è®¢": 7621,
      "çľĭçĿĢæĪĳ": 7622,
      "å¿ĥä¸Ĭ": 7623,
      "å¿ĥåľ°": 7624,
      "ç©ºèį¡èį¡": 7625,
      "çĪ±è¿ĩ": 7626,
      "è´±": 7627,
      "æļĹå¤ľ": 7628,
      "åį´æ²¡æľī": 7629,
      "çļĦä¸Ģçīĩ": 7630,
      "ç¬ĳå®¹": 7631,
      "ä¸ĩåįĥ": 7632,
      "è§£åĨ³": 7633,
      "è®¤åĩº": 7634,
      "åĲ¦åĪĻ": 7635,
      "éĽ¶éĽ¶": 7636,
      "æı¡æīĭ": 7637,
      "198": 7638,
      "çļĦçŁŃ": 7639,
      "çļĦçŀ³": 7640,
      "å´©æºĥ": 7641,
      "çļĦæ¬¢ä¹Ĳ": 7642,
      "èĢĮèĩ³": 7643,
      "æ·¤": 7644,
      "ä¼¤çĹķ": 7645,
      "çļĦçľĭ": 7646,
      "èĻļæĭŁ": 7647,
      "çļĦæ³ķ": 7648,
      "åĽºå®ļ": 7649,
      "ç°¸": 7650,
      "çļĦè¡£è£³": 7651,
      "çļĦå¤ıå¤©": 7652,
      "åĽ±": 7653,
      "å°±æĬĬ": 7654,
      "éĿ¢åħ·": 7655,
      "è¿ľåı¤": 7656,
      "çĽ¸è§ģ": 7657,
      "ç¾İå¥³": 7658,
      "çļĦçľī": 7659,
      "éļıæīĭ": 7660,
      "çļĦèĬ¬": 7661,
      "é£ĺé£ĺ": 7662,
      "ç¬¬ä¸Ģä¸ª": 7663,
      "æĿľç»¿ç»¿": 7664,
      "èĬ³é¦Ļ": 7665,
      "è®¨åİĮ": 7666,
      "åĴ±ä»¬": 7667,
      "èĶļèĵĿ": 7668,
      "âĸ¡": 7669,
      "®ä¸§": 7670,
      "ä¸¸": 7671,
      "æĪĲä¸Ģä¸ª": 7672,
      "äºİæĺ¯æĪĳ": 7673,
      "æĺİæĹ¥": 7674,
      "åķľ": 7675,
      "å¾Īå°ı": 7676,
      "èĮ¸": 7677,
      "å½¢å®¹": 7678,
      "åĬłéĢŁ": 7679,
      "æĤ²åī§": 7680,
      "éĵ¶æ²³": 7681,
      "ç¢°åĪ°": 7682,
      "çļĦæīĢæľī": 7683,
      "çļĦå»ºçŃĳ": 7684,
      "éĦ": 7685,
      "æĺŃ": 7686,
      "ä¸įçĶ±": 7687,
      "äººåĴĮ": 7688,
      "å¯¨": 7689,
      "åĳĵ": 7690,
      "ä¹Łè¢«": 7691,
      "è¯´æĺ¯": 7692,
      "æĪĲäºĨä¸Ģ": 7693,
      "çĥĻ": 7694,
      "èĲ½æ»¡": 7695,
      "å¹³åĩ¡": 7696,
      "è¸±": 7697,
      "çļĦå¥ĩ": 7698,
      "èĪ¬çļĦ": 7699,
      "èĥĮè´Ł": 7700,
      "å½¢çĬ¶": 7701,
      "åĬłä¸Ĭ": 7702,
      "ä¸ĢåĿĹçŁ³å¤´": 7703,
      "æ··æ²Į": 7704,
      "æĮ¥æīĭ": 7705,
      "è¤¶": 7706,
      "éĴ¢çĲ´": 7707,
      "é»ĺé»ĺåľ°": 7708,
      "èľ·ç¼©": 7709,
      "æĪĳå¸ĮæľĽ": 7710,
      "æĺ¯å¦ĤæŃ¤": 7711,
      "çļĦæ¦": 7712,
      "å¤§ç¬ĳ": 7713,
      "çº½": 7714,
      "æĪĳä»¬ä¸Ģèµ·": 7715,
      "åĸĭ": 7716,
      "éķ¿äºĨ": 7717,
      "æĹ¥æľ¬": 7718,
      "ä¾į": 7719,
      "æĻļé¤Ĳ": 7720,
      "æĭīçĿĢ": 7721,
      "æĢĢçĿĢ": 7722,
      "éª¨éª¼": 7723,
      "èĢ³è¾¹": 7724,
      "å»¶ç»Ń": 7725,
      "æľīçĤ¹åĦ¿": 7726,
      "éĢ¼è¿ĳ": 7727,
      "åª³": 7728,
      "çļĦç¥ĸåĽ½": 7729,
      "çļĦç´«": 7730,
      "50": 7731,
      "çļĦè¿ľæĸ¹": 7732,
      "ä¸Ģä¼ļ": 7733,
      "ä¸ĢéĹ´": 7734,
      "çļĦå«": 7735,
      "ä»ĸçĶ¨": 7736,
      "çľĭä¸įæ¸ħ": 7737,
      "éķ¿å¾Ĺ": 7738,
      "ç¼Ń": 7739,
      "æ¡¨": 7740,
      "çģ«ä¸Ń": 7741,
      "çº¢èī²çļĦ": 7742,
      "å¸¦ä¸Ĭ": 7743,
      "æīĢæľīäºº": 7744,
      "å®ģæĦ¿": 7745,
      "ä¸Ģåº§å±±": 7746,
      "çļĦå¤©æ°Ķ": 7747,
      "ä¸¢å¼ĥ": 7748,
      "éĹŃä¸Ĭçľ¼çĿĽ": 7749,
      "èĲĿåįľ": 7750,
      "ä½łéĤ£": 7751,
      "çļĦåł": 7752,
      "æ°§": 7753,
      "å¹´å¹´": 7754,
      "ä¸¤æ¬¡": 7755,
      "åĪĨäº«": 7756,
      "çŁ³åŃĲ": 7757,
      "çļĦä¸Ģå£°": 7758,
      "åľŁéĩĮ": 7759,
      "äºĮåįģå¹´": 7760,
      "åģľé¡¿": 7761,
      "å¨¶": 7762,
      "åıĹåĪ°": 7763,
      "åıĮèĦļ": 7764,
      "ç¿»èº«": 7765,
      "æĦ¿æľĽ": 7766,
      "çļĦéĺŁ": 7767,
      "ãĢĭï¼Į": 7768,
      "éĨīäºĨ": 7769,
      "æ´ģåĩĢ": 7770,
      "èĥ¡åŃĲ": 7771,
      "è®¡åĪĴ": 7772,
      "éĴ¢éĵģ": 7773,
      "åĭĩæ°Ķ": 7774,
      "åĽļç¦ģ": 7775,
      "Ĩåĵ®": 7776,
      "çļĦæľĢ": 7777,
      "åľ¨ä»ĸä»¬": 7778,
      "ä½łæīĢ": 7779,
      "è¿ĩå®¢": 7780,
      "åħīäºĨ": 7781,
      "å¼ĢåĲ¯": 7782,
      "è¿ĺåı¯ä»¥": 7783,
      "èĬ±èįī": 7784,
      "å§¥": 7785,
      "è§£å¼Ģ": 7786,
      "èļĵ": 7787,
      "æŀĿä¸Ĭ": 7788,
      "æ¹ĸè¾¹": 7789,
      "çļĦçº¯": 7790,
      "éĢģæĿ¥": 7791,
      "ç£ģ": 7792,
      "çļĦçĻ½èī²": 7793,
      "ç¼łç»µ": 7794,
      "éĻªä¼´": 7795,
      "ç»Ħç»ĩ": 7796,
      "çģĮæľ¨": 7797,
      "è§ĦåĪĻ": 7798,
      "æłĸæģ¯": 7799,
      "ä¸ĢæŀĿ": 7800,
      "åľ¨æ¢¦éĩĮ": 7801,
      "ä¸įè¢«": 7802,
      "ä¸įå·²": 7803,
      "æĪĳä»¬è¦ģ": 7804,
      "è¯´æĪĳ": 7805,
      "é©®": 7806,
      "ä¼¤æĦŁ": 7807,
      "å¹³å¸¸": 7808,
      "èľķ": 7809,
      "ä½İä¸ĭ": 7810,
      "åĽŃéĩĮ": 7811,
      "åįķèĸĦ": 7812,
      "éĢģç»Ļ": 7813,
      "éļĶç¦»": 7814,
      "çļĦçĭ¬": 7815,
      "çºµæ¨ª": 7816,
      "çļĦçģ°çĥ¬": 7817,
      "çļĦåĲĮ": 7818,
      "çļĦæľ¬": 7819,
      "åĬ£": 7820,
      "éĿ¢çĽ®": 7821,
      "æµģè¡Į": 7822,
      "ä¸īåįĥ": 7823,
      "åĨĻåĩº": 7824,
      "é©¬è¹Ħ": 7825,
      "æ®Ĭ": 7826,
      "çĶŁæ´»åľ¨": 7827,
      "æ¸¸èµ°": 7828,
      "æĪĳä¸įæķ¢": 7829,
      "å¤ŁäºĨ": 7830,
      "ç£ķ": 7831,
      "ä¸ĢåľºéĽ¨": 7832,
      "åŃĶéĽĢ": 7833,
      "ä¼ıåľ¨": 7834,
      "åĵģå°Ŀ": 7835,
      "çļĦå¾Ī": 7836,
      "éģ¿åħį": 7837,
      "æĹłæīĢè°ĵ": 7838,
      "è§ģéĿ¢": 7839,
      "ç¼Ħé»ĺ": 7840,
      "æ»¡æĦı": 7841,
      "å¹²äºĨ": 7842,
      "æº¯": 7843,
      "åįĬå¤©": 7844,
      "çĶŁåĳ½ä¸Ń": 7845,
      "èĥĮæĻ¯": 7846,
      "éĻĪåħĪåıĳ": 7847,
      "å®¤åĨħ": 7848,
      "åį·èµ·": 7849,
      "æķ´ä¸ªä¸ĸçķĮ": 7850,
      "æı¡ä½ı": 7851,
      "æĸĳæĸĵ": 7852,
      "ç¾ŀæĦ§": 7853,
      "çļĦç«¹": 7854,
      "çļĦåĽŀå£°": 7855,
      "æľ´ç´ł": 7856,
      "ä¹ŀä¸Ĳ": 7857,
      "çļĦè¢«": 7858,
      "ä¸ĢåĬ¨ä¸įåĬ¨": 7859,
      "Ġä¸Ģ": 7860,
      "çļĦæĿ¾": 7861,
      "è¿Ń": 7862,
      "æĺ¯åķĬ": 7863,
      "çĶŁåĬ¨": 7864,
      "èĢĮåĲİ": 7865,
      "èµ°ä¸Ĭ": 7866,
      "çĭ®": 7867,
      "ä¸¤ç§į": 7868,
      "åį´ä¸į": 7869,
      "è¡ĢèĤī": 7870,
      "çļĦæīĵ": 7871,
      "èĬĤæĹ¥": 7872,
      "èĪŀåı°": 7873,
      "æľįåĬ¡": 7874,
      "çļĦæķ°": 7875,
      "æ¶Īå¤±åľ¨": 7876,
      "æĬµæĬĹ": 7877,
      "çļĦå·¥ä½ľ": 7878,
      "åłķèĲ½": 7879,
      "æĪĳéľĢè¦ģ": 7880,
      "æ°ĵ": 7881,
      "æĭĮ": 7882,
      "åīįæĿ¥": 7883,
      "æ¶§": 7884,
      "åĨįä¹Łä¸į": 7885,
      "ä»ĸä»¬æĺ¯": 7886,
      "èİĵ": 7887,
      "äºĶåįģ": 7888,
      "åĢĴå½±": 7889,
      "éĢıäºĨ": 7890,
      "è¯»åĪ°": 7891,
      "æĥĬæħĮ": 7892,
      "å·¥åİĤ": 7893,
      "æĤ¬æĮĤ": 7894,
      "å®½æģķ": 7895,
      "å¾Īå¤ļäºº": 7896,
      "çļĦçģ¯çģ«": 7897,
      "çļĦå¿§éĥģ": 7898,
      "æħĪæĤ²": 7899,
      "çĳŁçĳŁ": 7900,
      "çļĦåĽ½åº¦": 7901,
      "é«ĵ": 7902,
      "¯èļĵ": 7903,
      "çļĦæľĢåĲİ": 7904,
      "ä¸Ĭæľī": 7905,
      "ä»İä¸Ģä¸ª": 7906,
      "å¿ĥçļĦ": 7907,
      "è¢«é£İåĲ¹": 7908,
      "ç«ŀ": 7909,
      "æĥħåĨµ": 7910,
      "è¡ĮèĢħ": 7911,
      "åŁĤ": 7912,
      "å»ĸ": 7913,
      "åĲ¹æĿ¥": 7914,
      "æĻ¨æĽ¦": 7915,
      "ä¸ĢåľºéĽª": 7916,
      "æĭ¿åĩº": 7917,
      "ç¥ĸçĪ¶": 7918,
      "çļĦçģ°å°ĺ": 7919,
      "ä¸įè¿ľå¤Ħ": 7920,
      "å¤§å¸Ī": 7921,
      "çĶŁçī©": 7922,
      "éķ°åĪĢ": 7923,
      "ç©ºçĿĢ": 7924,
      "çĻ½èıľ": 7925,
      "åĲ¬ä¸įåĪ°": 7926,
      "å®ŀçİ°": 7927,
      "å®ŀéĻħ": 7928,
      "ç¥ŀè¯Ŀ": 7929,
      "ä¸Ģæł·çļĦ": 7930,
      "åħ³æ³¨": 7931,
      "åĺŁ": 7932,
      "åħ¬äº¤": 7933,
      "çł´æĹ§": 7934,
      "ç¿»è¿ĩ": 7935,
      "çļĦèĤº": 7936,
      "èĶ¬": 7937,
      "çļĦè§¦": 7938,
      "ç§¯éĽª": 7939,
      "çļĦé¦Ļæ°Ķ": 7940,
      "ç«ĸèµ·": 7941,
      "çļĦè°İè¨Ģ": 7942,
      "æľīéĻĲ": 7943,
      "çļĦè¦": 7944,
      "æŃ§": 7945,
      "è¿ĻèĪ¬": 7946,
      "æĺŁçĲĥ": 7947,
      "ç¥ŀå¥ĩ": 7948,
      "èĮ¬": 7949,
      "åĲĥçĿĢ": 7950,
      "åĽłä¸ºä½ł": 7951,
      "çļĦèĬ¦": 7952,
      "é¸£åı«": 7953,
      "å£ģä¸Ĭ": 7954,
      "åį«çĶŁ": 7955,
      "ä¸Ģæľ¬ä¹¦": 7956,
      "è¿ģå¾Ļ": 7957,
      "çĢļ": 7958,
      "åĥµç¡¬": 7959,
      "çļĦèļĤèļģ": 7960,
      "æĺ¯ä¸ºäºĨ": 7961,
      "ä¸įåĸľæ¬¢": 7962,
      "çļĦéĨ": 7963,
      "ä¸ĭçĿĢ": 7964,
      "å¼ĢéĹ¨": 7965,
      "ä¼ļè®®": 7966,
      "åı¯æĪĳ": 7967,
      "åĽŀé¦ĸ": 7968,
      "æ¶Łæ¼ª": 7969,
      "æ¢°": 7970,
      "ç§įä¸ĭ": 7971,
      "çĽ¸éĢ¢": 7972,
      "èĮĦ": 7973,
      "éŃı": 7974,
      "æľ¬ä¹¦": 7975,
      "è§Ĥçľĭ": 7976,
      "èĥ¸åīį": 7977,
      "éĤ£ä¸ĢåĪ»": 7978,
      "åĦ": 7979,
      "åıĪèĥ½": 7980,
      "æ¼ĵ": 7981,
      "æħµ": 7982,
      "å¹³è¡¡": 7983,
      "æİ¥ä¸ĭæĿ¥": 7984,
      "æĮĩå°ĸ": 7985,
      "åı°é£İ": 7986,
      "çļĦç§¯": 7987,
      "æĿ¨æłĳ": 7988,
      "çļĦè§Ĥ": 7989,
      "æİ¢åĩº": 7990,
      "çļĦé¸ŁåĦ¿": 7991,
      "çļĦçªĹæĪ·": 7992,
      "æĪĳåĴĮä½ł": 7993,
      "ä¸»ä¹īèĢħ": 7994,
      "çļĦå©´åĦ¿": 7995,
      "çļĦåĭĩ": 7996,
      "åľ¨åĨ¬å¤©": 7997,
      "åľ¨å¤ľéĩĮ": 7998,
      "è¿Ļè¾¹": 7999,
      "å¤©çĶŁ": 8000,
      "èĩ£": 8001,
      "éĢĽ": 8002,
      "ä¸ºæĪĳä»¬": 8003,
      "æĭĵ": 8004,
      "èĢĮä»Ĭ": 8005,
      "åĲİæĤĶ": 8006,
      "éĥ½å°Ĩ": 8007,
      "çĻ½äºĨ": 8008,
      "è´º": 8009,
      "çªŁ": 8010,
      "ä½ĵéªĮ": 8011,
      "æĳģ": 8012,
      "éĿĻè°§": 8013,
      "ä¸īåįģå¹´": 8014,
      "éĩįçĶŁ": 8015,
      "ç±ģ": 8016,
      "æĪ¿éĩĮ": 8017,
      "æķ´çĲĨ": 8018,
      "çļĦå¥¶": 8019,
      "çļĦæł¸": 8020,
      "è¿·èĮ«": 8021,
      "çĶ°åĽŃ": 8022,
      "æĵİ": 8023,
      "çļĦåĽ´": 8024,
      "èµ¶è·¯": 8025,
      "æľ«æĹ¥": 8026,
      "çıįçıł": 8027,
      "èģĶç³»": 8028,
      "èĴ²åħ¬èĭ±": 8029,
      "çļĦèĬ¬èĬ³": 8030,
      "ä¸ĢæĪª": 8031,
      "æĶĴ": 8032,
      "ç©ºäºĨ": 8033,
      "éľ¸": 8034,
      "æµ·åºķ": 8035,
      "çİ°åľº": 8036,
      "è½¦åİ¢": 8037,
      "æĸ°å¹´": 8038,
      "å·´é»İ": 8039,
      "åĻľ": 8040,
      "çļĦæĸĳ": 8041,
      "çļĦæ³¡": 8042,
      "çĪ¬è¡Į": 8043,
      "å±ķç¤º": 8044,
      "æŀģäºĨ": 8045,
      "èµµä¸½": 8046,
      "çļĦå©ļ": 8047,
      "èĤĮèĤ¤": 8048,
      "ä¼«ç«ĭ": 8049,
      "çļĦæĻºæħ§": 8050,
      "åĨī": 8051,
      "å¤§æ¦Ĥ": 8052,
      "èĢĮä»ĸ": 8053,
      "åĲİéĢĢ": 8054,
      "ä¹ĭåĨħ": 8055,
      "å¯¹ä¸įèµ·": 8056,
      "éĵ²": 8057,
      "åĲ¬å¾Ĺ": 8058,
      "æĺ¯ä¸Ģåº§": 8059,
      "æĻļé¥Ń": 8060,
      "åĽĽæĸ¹": 8061,
      "è¡Ģç®¡": 8062,
      "ä¸Ģçīĩåı¶åŃĲ": 8063,
      "éĤ£ä¸ªäºº": 8064,
      "åį°è±¡": 8065,
      "ä¸¥èĤĥ": 8066,
      "é¥®éħĴ": 8067,
      "æĪ´ä¸Ĭ": 8068,
      "åįłé¢Ĩ": 8069,
      "èį·èĬ±": 8070,
      "èº¯ä½ĵ": 8071,
      "å¢ŀåĬł": 8072,
      "çļĦæ¡ĥèĬ±": 8073,
      "åĪĺäºļåħ¨": 8074,
      "çļĦç¯": 8075,
      "æĹłé¡»": 8076,
      "åı¯è§ģ": 8077,
      "éĽ¨å¤©": 8078,
      "å½ĵåĪĿ": 8079,
      "ä¸īå¤©": 8080,
      "æļĹå¤Ħ": 8081,
      "ä¸įèĥ½åĨį": 8082,
      "æķ£äºĨ": 8083,
      "æ¶Įåĩº": 8084,
      "çļĦè½¬": 8085,
      "åĲŀä¸ĭ": 8086,
      "ç¼ºä¹ı": 8087,
      "ç»Łæ²»": 8088,
      "å¡ŀè¿Ľ": 8089,
      "æŃ¦æ±ī": 8090,
      "ä¼Ļä¼´": 8091,
      "æĢľæĤ¯": 8092,
      "çļĦæ£ī": 8093,
      "çļĦç¢İçīĩ": 8094,
      "çļĦåı¦ä¸Ģ": 8095,
      "æĪĳåĥı": 8096,
      "äºĨåĩºæĿ¥": 8097,
      "å½¹": 8098,
      "å°ıå··": 8099,
      "æµģéĢĿ": 8100,
      "è½¦è½®": 8101,
      "åĽĽèĤ¢": 8102,
      "åħĪæĺ¯": 8103,
      "æľĿçĿĢ": 8104,
      "çļĦçĽĲ": 8105,
      "çļĦçĽĽ": 8106,
      "éĿłçĿĢ": 8107,
      "é¬ĵ": 8108,
      "ç¼ĿéļĻ": 8109,
      "æĮ¥èĪŀ": 8110,
      "èĥľè¿ĩ": 8111,
      "çļĦè§Ĩçº¿": 8112,
      "åį¸ä¸ĭ": 8113,
      "æĪĳå®¶": 8114,
      "åľ¨åįĬ": 8115,
      "ä¸įçĪ±": 8116,
      "æĿ¥åİ»": 8117,
      "éĽ¨éĽ¨": 8118,
      "æŃ£ä¹ī": 8119,
      "ä½¿äºº": 8120,
      "åĺ»": 8121,
      "è§Ĩçº¿": 8122,
      "å¿ħå®ļ": 8123,
      "éļĲåĸ»": 8124,
      "è¯·ä¸įè¦ģ": 8125,
      "æ¤İ": 8126,
      "æĵħ": 8127,
      "åĲ¦å®ļ": 8128,
      "çĭĤå¥Ķ": 8129,
      "æ»ĳè¿ĩ": 8130,
      "æķ²éĹ¨": 8131,
      "æĬĸåĬ¨": 8132,
      "çļĦéĵľ": 8133,
      "çļĦéĽªèĬ±": 8134,
      "éĤ£ä¸Ģå¹´": 8135,
      "çļĦæģ¶": 8136,
      "åĺ²ç¬ĳ": 8137,
      "çļĦéº»éĽĢ": 8138,
      "ä»²": 8139,
      "äººçī©": 8140,
      "æĮŁ": 8141,
      "å·²çĦ¶": 8142,
      "çļĦåįķ": 8143,
      "ç£Ĭ": 8144,
      "åıĸåĩº": 8145,
      "ç½ĳä¸Ĭ": 8146,
      "çļĦæĻ¨": 8147,
      "çļĦéĴ±": 8148,
      "è¶ħå¸Ĥ": 8149,
      "çļĦç¥ŀç»ı": 8150,
      "çļĦçľŁå®ŀ": 8151,
      "çļĦæĶ¶": 8152,
      "éĤªæģ¶": 8153,
      "åľ¨æ²³": 8154,
      "ä¸įå¿į": 8155,
      "ä¸Ńæľī": 8156,
      "æ°´èįī": 8157,
      "æĬĬè¿Ļ": 8158,
      "èµ°èµ°": 8159,
      "æŀľçĦ¶": 8160,
      "æīįæľī": 8161,
      "åĲĪåĶ±": 8162,
      "çĹħäºº": 8163,
      "å´Ń": 8164,
      "èŀĤ": 8165,
      "å®ĿçŁ³": 8166,
      "éģ¿å¼Ģ": 8167,
      "çļĦæ·±æ¸Ĭ": 8168,
      "çļĦå°¸ä½ĵ": 8169,
      "ä¸ĢæĹł": 8170,
      "æĪĳè·Ł": 8171,
      "åŃµ": 8172,
      "çļĦçĨ": 8173,
      "åĴĮå®ĥ": 8174,
      "å®ĥä¼ļ": 8175,
      "ä¹ĭç¾İ": 8176,
      "ä»¥ä¸Ĭ": 8177,
      "åĶ¾": 8178,
      "çĲ¢": 8179,
      "æ¡£": 8180,
      "ç¦»åĪ«": 8181,
      "æ¹ĥ": 8182,
      "åĺ¿": 8183,
      "åŀ¢": 8184,
      "å¥Ķèħ¾": 8185,
      "çļĦé¸£": 8186,
      "èº²è¿Ľ": 8187,
      "ç¤¼çī©": 8188,
      "çļĦå¤ľéĩĮ": 8189,
      "ä¼°": 8190,
      "çļĦèĶ": 8191,
      "åŃĲå¤ľ": 8192,
      "ä»ĸæĥ³": 8193,
      "åĴĮè°Ĳ": 8194,
      "çīºçī²": 8195,
      "åĮĢ": 8196,
      "èµ°åĩºæĿ¥": 8197,
      "åĦ¿ç«¥": 8198,
      "èĩªå·±æĺ¯": 8199,
      "çŃĲ": 8200,
      "åı£æ°´": 8201,
      "é£ŀèµ·": 8202,
      "åĿĲä¸ĭæĿ¥": 8203,
      "çĵ¢": 8204,
      "æĶ¶åĽŀ": 8205,
      "ç²¾èĩ´": 8206,
      "å¼¹å¥ı": 8207,
      "çļĦå¤©åłĤ": 8208,
      "è¿Łè¿Ł": 8209,
      "è¿Ļä¸ĢåĪ»": 8210,
      "å·®ä¸įå¤ļ": 8211,
      "åľ¨éĤ£åĦ¿": 8212,
      "èľĹçīĽ": 8213,
      "æĪĳæĢ»": 8214,
      "ç»į": 8215,
      "ä¸Ĭå¤©": 8216,
      "åľ°éľĩ": 8217,
      "è·Ŀ": 8218,
      "å¹´åĲİ": 8219,
      "äºİä½ł": 8220,
      "åĽŀåĪ°äºĨ": 8221,
      "çĶ¨å®ĥ": 8222,
      "æ»¡éĿ¢": 8223,
      "é©¬è½¦": 8224,
      "æ¬¢è¿İ": 8225,
      "çļĦèº«ä»½": 8226,
      "æĪĳä¸įåĨį": 8227,
      "è¡¨ç¤º": 8228,
      "çĨŁçĿ¡": 8229,
      "æµħæµħ": 8230,
      "çļĦéĻĮçĶŁ": 8231,
      "æµ¸æ³¡": 8232,
      "èµĭäºĪ": 8233,
      "ä¸įè®¤è¯Ĩ": 8234,
      "å¤©é»ĳ": 8235,
      "æĽ´å¥½": 8236,
      "éĩįåıł": 8237,
      "è°ģä¹Łä¸į": 8238,
      "æķ´åº§": 8239,
      "å½¢è±¡": 8240,
      "åĩĿç»ĵ": 8241,
      "çļĦé¸¡": 8242,
      "æĵ¦èĤ©": 8243,
      "æĨĭ": 8244,
      "åĬ³ä½ľ": 8245,
      "æ©±": 8246,
      "çļĦèĤīèº«": 8247,
      "åįµçŁ³": 8248,
      "ä¸Ńç§ĭ": 8249,
      "åĵ©": 8250,
      "ä¼ļè¢«": 8251,
      "èįīåľ°ä¸Ĭ": 8252,
      "æ¸ħæ°´": 8253,
      "åĪĨè¾¨": 8254,
      "éĩįéĢ¢": 8255,
      "æĶ¾éĢĲ": 8256,
      "æ¯ıä¸Ģå¤©": 8257,
      "ä¹ħè¿ľ": 8258,
      "æ¨Ł": 8259,
      "æĪĳæĺ¯èĿİ": 8260,
      "å¼Ĥå¸¸": 8261,
      "æ¾İ": 8262,
      "ç²īç¢İ": 8263,
      "å¢ĵåľ°": 8264,
      "ç¼ºå°ĳ": 8265,
      "å·«æĺĤ": 8266,
      "æĪĳæĺ¯èĿİå¤§äºº": 8267,
      "çļĦä½İ": 8268,
      "æĪĳæĦ¿": 8269,
      "æĪĳçľĭçĿĢ": 8270,
      "äºĨå¥¹": 8271,
      "çļĦå³": 8272,
      "å¹¡": 8273,
      "éĤ£å¼ł": 8274,
      "çļĦèĦī": 8275,
      "éĹ®åĢĻ": 8276,
      "èģĭ": 8277,
      "ç¢İè£Ĥ": 8278,
      "æ¼«è¿ĩ": 8279,
      "æĥĬæģĲ": 8280,
      "çĺ«": 8281,
      "çĭĤé£İ": 8282,
      "èİ«éĿŀ": 8283,
      "çļĦäºĳæľµ": 8284,
      "çļĦèĪŀè¹Ī": 8285,
      "ä¸ĢèĦļ": 8286,
      "åľ¨è¥¿": 8287,
      "å¦®": 8288,
      "å¾ĹäºĨ": 8289,
      "ç«¿": 8290,
      "é¸ł": 8291,
      "éĽ¨åŃ£": 8292,
      "å®īæģ¯": 8293,
      "çº¢çļĦ": 8294,
      "å¸¦åĽŀ": 8295,
      "æĢ§çļĦ": 8296,
      "å¿ĺæİī": 8297,
      "çļĦå±ģ": 8298,
      "æ´Ĺæ¾¡": 8299,
      "æĿĢæŃ»": 8300,
      "çļĦè½¨": 8301,
      "éĹ»åĪ°": 8302,
      "ä¸¢äºĨ": 8303,
      "ç»µç»µ": 8304,
      "çļĦåĸľæĤ¦": 8305,
      "çļĦä¸įæĺ¯": 8306,
      "æĺ¯è¿Ļæł·": 8307,
      "çĶŁåīį": 8308,
      "ä»İå¤©": 8309,
      "èµ°åħ¥": 8310,
      "å¥½åĲ§": 8311,
      "èĲ½åĪ°": 8312,
      "åħ¶å®ĥ": 8313,
      "ä½¿åĳ½": 8314,
      "ç¨£": 8315,
      "çĬĢ": 8316,
      "åĨ¬åŃ£": 8317,
      "ä¸»ä»»": 8318,
      "çļĦéĽķ": 8319,
      "æĬ±æĢ¨": 8320,
      "åĩ»ä¸Ń": 8321,
      "æŀ¯åı¶": 8322,
      "çļĦèº«ä½ĵéĩĮ": 8323,
      "ä¸°æ»¡": 8324,
      "ä¸°æĶ¶": 8325,
      "çļĦåĮħ": 8326,
      "æııç»ĺ": 8327,
      "éļĨéļĨ": 8328,
      "æĲģæµħ": 8329,
      "40": 8330,
      "çļĦçĺ": 8331,
      "åĴĮé£İ": 8332,
      "å¤§éĻĨ": 8333,
      "å°±æŃ¤": 8334,
      "åİ»åĲ§": 8335,
      "å°ıæ²³": 8336,
      "å¤ļæ¬¡": 8337,
      "å¹´çºª": 8338,
      "å¤ľå¤ľ": 8339,
      "æ±²": 8340,
      "ç¼ļ": 8341,
      "åĨįä¹Łæ²¡æľī": 8342,
      "æµ·éĩĮ": 8343,
      "ç»Ļå®ĥ": 8344,
      "æĺ¥æĹ¥": 8345,
      "çĽ¸åıį": 8346,
      "åĪĨä¸įæ¸ħ": 8347,
      "åĨĻä¿¡": 8348,
      "ç»ĵå®ŀ": 8349,
      "èĹ»": 8350,
      "è¿ŀç»Ń": 8351,
      "è¿·æĥĳ": 8352,
      "çļĦéĤ£ç§į": 8353,
      "å³Ļ": 8354,
      "åĽ´çĿĢ": 8355,
      "èıľå¸Ĥåľº": 8356,
      "å¥ĩå¼Ĥ": 8357,
      "ä¿®è¾ŀ": 8358,
      "ä½łæĺ¯åĲ¦": 8359,
      "çİ©åħ·": 8360,
      "çļĦåĵį": 8361,
      "èĤ©èĨĢ": 8362,
      "è£ĻåŃĲ": 8363,
      "ç§Ģåįİ": 8364,
      "è½°é¸£": 8365,
      "çļĦæºĲ": 8366,
      "er": 8367,
      "çļĦåŃ¤": 8368,
      "æĹ¶æľŁ": 8369,
      "å¤§æ²³": 8370,
      "å¸ĸ": 8371,
      "ç»ıæµİ": 8372,
      "æĥħæĦ¿": 8373,
      "ä¾ł": 8374,
      "æŃ»äºº": 8375,
      "åŃ©ç«¥": 8376,
      "è½¬çľ¼": 8377,
      "é¡¶ä¸Ĭ": 8378,
      "åĭº": 8379,
      "æİ¨çĿĢ": 8380,
      "çº·é£ŀ": 8381,
      "å«ī": 8382,
      "æ®ĭç¼º": 8383,
      "ç½Ĺæĸ¯": 8384,
      "çļĦéĢļ": 8385,
      "çĮĽçĦ¶": 8386,
      "æĭ¾èµ·": 8387,
      "è¿ľè¿ľåľ°": 8388,
      "çļĦçŁ¥": 8389,
      "çļĦé¼ĵ": 8390,
      "èłķåĬ¨": 8391,
      "ä¸Ģä»£": 8392,
      "ä¸Ģåº¦": 8393,
      "ä½łæĿ¥": 8394,
      "çļĦæŁ³": 8395,
      "å¤§è¡Ĺä¸Ĭ": 8396,
      "åĩºäºİ": 8397,
      "æĹłä»İ": 8398,
      "æĹłå¸¸": 8399,
      "å¤ľæ·±": 8400,
      "éļ§éģĵ": 8401,
      "çĶ¨æīĭ": 8402,
      "æ·±èĹı": 8403,
      "ç¦»æĪĳ": 8404,
      "åĨĻåĪ°": 8405,
      "çļĦä¸Ģæ¬¡": 8406,
      "éħĴç²¾": 8407,
      "æ²Ļæ²Ļ": 8408,
      "çİ°åľ¨æĺ¯": 8409,
      "è¿ŀæİ¥": 8410,
      "ä½Ļç§Ģåįİ": 8411,
      "åģĩè®¾": 8412,
      "æĢİä¹ĪåĬŀ": 8413,
      "çĥĪæĹ¥": 8414,
      "è´Łè´£": 8415,
      "äººç¾¤ä¸Ń": 8416,
      "è¶´åľ¨": 8417,
      "ä¸įä¿¡": 8418,
      "åĪ¨": 8419,
      "åĪĬ": 8420,
      "æ²®ä¸§": 8421,
      "å¯Ĳ": 8422,
      "åĴĮå°ı": 8423,
      "å¤§éģĵ": 8424,
      "æķ¦": 8425,
      "æĪĲå°±": 8426,
      "å£°éĩĮ": 8427,
      "åĦ¿æĹ¶": 8428,
      "äº²å¯Ĩ": 8429,
      "æĺ¥éĽ¨": 8430,
      "ç²Ł": 8431,
      "æŀľåŃĲ": 8432,
      "çģµæĦŁ": 8433,
      "éļĲåĮ¿": 8434,
      "æ½®æ°´": 8435,
      "æ®ĭå¿į": 8436,
      "çĬ¶æĢģ": 8437,
      "åı®åı®": 8438,
      "çļĦæ¤ħ": 8439,
      "èĢ¶ç¨£": 8440,
      "çļĦçĦ¦": 8441,
      "åĿįå¡Į": 8442,
      "äºĺ": 8443,
      "ä¸Ģæĸ¹": 8444,
      "ä¸įèµ°": 8445,
      "ä¸įè®©": 8446,
      "äºĨè®¸å¤ļ": 8447,
      "èĬŃ": 8448,
      "åı£æ°Ķ": 8449,
      "ä»ĸä»¬éĥ½": 8450,
      "çĸ®": 8451,
      "èįīåı¶": 8452,
      "çļĦä¸ĢæĿ¡": 8453,
      "åıĮèħ¿": 8454,
      "çļĦæĸŃ": 8455,
      "åĿļå¼º": 8456,
      "æĺ¾çİ°": 8457,
      "çļĦåİ»": 8458,
      "ä¿ĿæĮģçĿĢ": 8459,
      "éĺ»æĮ¡": 8460,
      "çļĦçĲĨæĥ³": 8461,
      "ä¸įç»ıæĦı": 8462,
      "ä¸ĢæĹ¶": 8463,
      "ä¸ĢèĦ¸": 8464,
      "æĺ¯æĢİæł·": 8465,
      "ä½łå°±æĺ¯": 8466,
      "åĴĮä¸Ģä¸ª": 8467,
      "å¤§åİ¦": 8468,
      "æ»¡æ»¡": 8469,
      "åĲįåı«": 8470,
      "åħ³éĶ®": 8471,
      "æµ®äºĳ": 8472,
      "çļĦæ¯Ķ": 8473,
      "æĿĤèįī": 8474,
      "çļĦéª¨éª¼": 8475,
      "æ½ľåħ¥": 8476,
      "å¾Ĳå¾Ĳ": 8477,
      "åĵĹåĵĹ": 8478,
      "çļĦçľŁçĲĨ": 8479,
      "çļĦèĵĿèī²": 8480,
      "çļĦæºª": 8481,
      "ä¸įè¡Į": 8482,
      "ä¸įæİī": 8483,
      "åģ¿": 8484,
      "ä½ĵä¼ļ": 8485,
      "æĺ¥ç§ĭ": 8486,
      "çŁ³æ¦´": 8487,
      "ç§ĭæĹ¥": 8488,
      "æĪ¿åŃĲéĩĮ": 8489,
      "å¾®ä¿¡": 8490,
      "è¿·ç¦»": 8491,
      "ä¼łå¥ĩ": 8492,
      "è·ĳåĪ°": 8493,
      "æļ´åĬĽ": 8494,
      "å¸ĿåĽ½": 8495,
      "å¤«å¦»": 8496,
      "åĸĦäºİ": 8497,
      "æŁ³æłĳ": 8498,
      "çļĦæĤ¬": 8499,
      "æºĲäºİ": 8500,
      "åĨĴåĩº": 8501,
      "æ¯ķä¸ļ": 8502,
      "çļĦä¸»äºº": 8503,
      "åĲĨ": 8504,
      "äººäºº": 8505,
      "æĹłç«¯": 8506,
      "æĺİæĺ¾": 8507,
      "é«ĺæ½®": 8508,
      "åħ¬ä¸»": 8509,
      "çļĦåħīéĺ´": 8510,
      "æµ®çİ°": 8511,
      "æĬ½åĩº": 8512,
      "ä¾ĿçĦ¶æĺ¯": 8513,
      "èĴĻèĴĻ": 8514,
      "çļĦéĿ¢åīį": 8515,
      "çļĦæĦıæĢĿ": 8516,
      "å½»å¤ľ": 8517,
      "åįģäºĮæľĪ": 8518,
      "èĺĳèıĩ": 8519,
      "èµµä¸½åįİ": 8520,
      "æľīè®¸å¤ļ": 8521,
      "ä½łåı¯": 8522,
      "åħīéĩĮ": 8523,
      "å°Ĩåľ¨": 8524,
      "å½ĵä»ĸ": 8525,
      "æĦŁåĨĴ": 8526,
      "éĿĴéĵľ": 8527,
      "æľµèĬ±": 8528,
      "èĹĵ": 8529,
      "æķ£åİ»": 8530,
      "çĥŁçģ«": 8531,
      "åĮĹå²Ľ": 8532,
      "åıªæĺ¯ä¸Ģä¸ª": 8533,
      "å©´": 8534,
      "æľĢåĲİçļĦ": 8535,
      "æľĢåĲİä¸Ģæ¬¡": 8536,
      "æıĲä¾Ľ": 8537,
      "çĺł": 8538,
      "è¿½éļı": 8539,
      "å®ĪåĢĻ": 8540,
      "èĩ´åĳ½": 8541,
      "çİīåħ°": 8542,
      "æķ²åĩ»": 8543,
      "è¿İçĿĢ": 8544,
      "çİ¯ç»ķ": 8545,
      "éĽ·å£°": 8546,
      "å¦ĩå¥³": 8547,
      "çĤīçģ«": 8548,
      "çļĦåħĦå¼Ł": 8549,
      "ä¸ĢåĲį": 8550,
      "æĪĳæĢķ": 8551,
      "ä½łæ²¡æľī": 8552,
      "ä½łçļĦæīĭ": 8553,
      "åıªçķĻä¸ĭ": 8554,
      "æĭ´": 8555,
      "åĵº": 8556,
      "å¤Ħå¥³": 8557,
      "åĪ«å¤Ħ": 8558,
      "åģľäºĨ": 8559,
      "æľīä¸Ģæ¬¡": 8560,
      "é¹ı": 8561,
      "åı°åĮĹ": 8562,
      "ä¸Ģçīĩçīĩ": 8563,
      "çļĦæ²³æ°´": 8564,
      "çļĦå½¢å¼ı": 8565,
      "é©±èµ¶": 8566,
      "çĭŃçªĦ": 8567,
      "æ²¼æ³½": 8568,
      "ä¸Ģè½®": 8569,
      "ä¸Ģåħ·": 8570,
      "æĪĳè®°å¾Ĺ": 8571,
      "åĲŃ": 8572,
      "æĺ¯å¥¹": 8573,
      "ä¸įåĩºæĿ¥": 8574,
      "ä¸įé¡¾": 8575,
      "æľīä½ł": 8576,
      "ä½łçļĦå¿ĥ": 8577,
      "çļĦç³": 8578,
      "åĴĶ": 8579,
      "åĴĨåĵ®": 8580,
      "å°±å¼Ģå§ĭ": 8581,
      "ä¸ºä»ĸ": 8582,
      "åĵĩ": 8583,
      "æ»¡å±±": 8584,
      "åĨĻåŃĹ": 8585,
      "çľŁå¥½": 8586,
      "å¹¶æľª": 8587,
      "å¾ĢæĹ¥": 8588,
      "å½©èī²": 8589,
      "éĢĥéģ¿": 8590,
      "ä¸Ľä¸Ń": 8591,
      "ç¹ģè¡į": 8592,
      "å°Ħåĩº": 8593,
      "çļĦéĴĪ": 8594,
      "åĢŁåĬ©": 8595,
      "æ©Ļ": 8596,
      "è¾Ĺè½¬": 8597,
      "çļĦä¼łè¯´": 8598,
      "æĪĳçĶļèĩ³": 8599,
      "äººåĳĺ": 8600,
      "å¦Ĥæĺ¯": 8601,
      "è¯´ä¸įåĩº": 8602,
      "æĤ¸": 8603,
      "äº²æĪļ": 8604,
      "é«ĺè¿ĩ": 8605,
      "æĦŁæģ©": 8606,
      "å¾®å°ı": 8607,
      "è¡¨çİ°": 8608,
      "çĻ¾åĲĪ": 8609,
      "çĶ°åŁĤ": 8610,
      "çĳļ": 8611,
      "çļĦæŀª": 8612,
      "æĬ¥åĳĬ": 8613,
      "æ¢³çĲĨ": 8614,
      "çļĦèĽĩ": 8615,
      "ĨæĢħ": 8616,
      "åľ¨ä¸ĬéĿ¢": 8617,
      "åĩĽ": 8618,
      "æĥł": 8619,
      "è®½": 8620,
      "éĤ£æĺ¯æĪĳ": 8621,
      "çĶŁæ°Ķ": 8622,
      "è½©": 8623,
      "ä¹ĭåħī": 8624,
      "å¤ļæĥ³": 8625,
      "ä¸ĸäºº": 8626,
      "ç²¥": 8627,
      "éħµ": 8628,
      "æ²īéĨī": 8629,
      "çĶµçº¿": 8630,
      "æķ°çĿĢ": 8631,
      "æ»´çŃĶ": 8632,
      "æľĿä»£": 8633,
      "çļĦæ¢¦ä¸Ń": 8634,
      "çļĦæŀĹ": 8635,
      "åħ·æľī": 8636,
      "åľ¨æ°´éĩĮ": 8637,
      "çļĦå¤ľèī²": 8638,
      "æģ°å¥½": 8639,
      "çļĦå®ģéĿĻ": 8640,
      "æĺ¯å¯¹": 8641,
      "äºĨå¤ļå°ĳ": 8642,
      "çĿĢèĦ¸": 8643,
      "çļĦç±": 8644,
      "åİ®": 8645,
      "å°±æ²¡æľī": 8646,
      "æĹłåĬ©": 8647,
      "åİ»è¿ĩ": 8648,
      "å°ıåŃ¦": 8649,
      "æ°´å£°": 8650,
      "æĻĭ": 8651,
      "é£İä»İ": 8652,
      "æ»¡èº«": 8653,
      "åħ¨åįİ": 8654,
      "æī¾å¯»": 8655,
      "åĺĪ": 8656,
      "åĬłåħ¥": 8657,
      "å¥Ķé©°": 8658,
      "æĩ¦": 8659,
      "çļĦæ±½": 8660,
      "å°ıå°ıçļĦ": 8661,
      "ç»µå»¶": 8662,
      "æ·ĭæ¹¿": 8663,
      "ä¸Ģæ»´æ°´": 8664,
      "çļĦéŁ³ç¬¦": 8665,
      "çļĦå°¾å·´": 8666,
      "åľ¨æĦı": 8667,
      "å¦ĤæĪĳ": 8668,
      "ä¹ĭæ°´": 8669,
      "ä¹ĭè·¯": 8670,
      "èĦ¾æ°Ķ": 8671,
      "å¯¹è§Ĩ": 8672,
      "è¿Ľåĩº": 8673,
      "æ»¡æĺ¯": 8674,
      "ç¢Ł": 8675,
      "åı¤äºº": 8676,
      "åĭ¿": 8677,
      "ä»¶äºĭ": 8678,
      "æŀ¯é»Ħ": 8679,
      "è¿Ļä¹Īå¤ļå¹´": 8680,
      "èĩ´æķ¬": 8681,
      "è£¹çĿĢ": 8682,
      "çļĦåĮĸ": 8683,
      "éĥŃåħ¨åįİ": 8684,
      "åĹ¡åĹ¡": 8685,
      "çļĦçħ§çīĩ": 8686,
      "çļĦæķĮäºº": 8687,
      "çļĦåı¯èĥ½": 8688,
      "çļĦæľªæĿ¥": 8689,
      "ä¸ĢæĽ²": 8690,
      "åľ¨åŁİå¸Ĥ": 8691,
      "åľ¨ç§ĭå¤©": 8692,
      "ä¸įåı¯ä»¥": 8693,
      "å¼Ĺ": 8694,
      "å£°å£°": 8695,
      "æ¶µ": 8696,
      "è®©æĪĳåľ¨": 8697,
      "åı£ä¸Ń": 8698,
      "æŃ£ç¡®": 8699,
      "çī©é¦Ĩ": 8700,
      "åĲ¹è¿ĩ": 8701,
      "åĪ©äºļ": 8702,
      "ä¸ĢçĤ¹ä¸ĢçĤ¹": 8703,
      "èĶ·èĸĩ": 8704,
      "èĭįç©¹": 8705,
      "æĮ¥éľį": 8706,
      "å®Ŀè´Ŀ": 8707,
      "å©ļå§»": 8708,
      "æĭ¨é¼ł": 8709,
      "é¢ĳé¢ĳ": 8710,
      "ĠæĪĳä»¬": 8711,
      "ä¸Ģçĵ¶": 8712,
      "ä¸įå¤ª": 8713,
      "çļĦéŁ": 8714,
      "å½Ń": 8715,
      "åĥıåľ¨": 8716,
      "è°Ĭ": 8717,
      "éĶ»": 8718,
      "è®¸ä¹ħ": 8719,
      "éĩİèĽ®": 8720,
      "çĲĨæĢ§": 8721,
      "æ¬¢åĳ¼": 8722,
      "æİīä¸ĭæĿ¥": 8723,
      "ç»Ĩå¾®": 8724,
      "çĥŁéĽ¾": 8725,
      "æ»´æ°´": 8726,
      "è¡¨éĿ¢": 8727,
      "çļĦéķ¿åıĳ": 8728,
      "éģ®ä½ı": 8729,
      "çļĦåĨħéĥ¨": 8730,
      "çļĦå¹´é¾Ħ": 8731,
      "åºŃéĻ¢": 8732,
      "èĪĴå±ķ": 8733,
      "å¹¿åľºä¸Ĭ": 8734,
      "å°Ŀè¯ķ": 8735,
      "ç°ĩæĭ¥": 8736,
      "çļĦç¦»": 8737,
      "çļĦè¶³è¿¹": 8738,
      "çļĦä¸Ń": 8739,
      "ä¸įéĶĻ": 8740,
      "çļĦæĴ": 8741,
      "å®ĥæľī": 8742,
      "å®¶å±ŀ": 8743,
      "å½ĵä¸Ń": 8744,
      "æ»¡æĢĢ": 8745,
      "éħĴçĵ¶": 8746,
      "æľīä¸ĢæĿ¡": 8747,
      "çĥŃè¡Ģ": 8748,
      "å¿ħå°Ĩ": 8749,
      "ï¼īï¼Į": 8750,
      "çŀĦ": 8751,
      "å¸ĥåħ¶": 8752,
      "æ¼«æ¸¸": 8753,
      "æľĿåĲĳ": 8754,
      "å®ĪæľĽ": 8755,
      "éĽĨä¸Ń": 8756,
      "çļĦæĥħæĦŁ": 8757,
      "å¦»åŃĲè¯´": 8758,
      "è®¾è®¡": 8759,
      "æ·±æ·±åľ°": 8760,
      "çļĦçĥŃæĥħ": 8761,
      "çļĦèľľ": 8762,
      "æĳ§æ¯ģ": 8763,
      "çļĦæĿ¥": 8764,
      "åľ°åľ¨": 8765,
      "å¤§éĹ¨": 8766,
      "çĶŁæĦı": 8767,
      "è·ļ": 8768,
      "æ¸ł": 8769,
      "èµ·é£ŀ": 8770,
      "æĶĺ": 8771,
      "åĪĨåŃĲ": 8772,
      "éĿĴéĿĴ": 8773,
      "æĴĩ": 8774,
      "çĶ±æŃ¤": 8775,
      "æ´ĹåĩĢ": 8776,
      "çĭĤæ¬¢": 8777,
      "æľĭåıĭä»¬": 8778,
      "å°ģéĹŃ": 8779,
      "çļĦå§Ĳ": 8780,
      "è´´è¿ĳ": 8781,
      "èĴ¸åıĳ": 8782,
      "çļĦåºŁå¢Ł": 8783,
      "ä¸Ĭå±±": 8784,
      "è¿ĻåĿĹ": 8785,
      "ä»ĸä¼ļ": 8786,
      "éĤ£ä¸Ģå¤©": 8787,
      "çĽ¹": 8788,
      "èµ°åĲ§": 8789,
      "å°ĨåĨĽ": 8790,
      "ä¾ĿéĿł": 8791,
      "èĻļä¼ª": 8792,
      "å±ĭåĲİ": 8793,
      "åĸĿæ°´": 8794,
      "çļĦçº¹": 8795,
      "æ¼Ĥæµģ": 8796,
      "è±ĨèħĲ": 8797,
      "å¾ĴåĬ³": 8798,
      "ç¨ĢèĸĦ": 8799,
      "æµ©æ³¢": 8800,
      "æİĢèµ·": 8801,
      "çľĭå¾Ĺè§ģ": 8802,
      "æ¾İæ¹ĥ": 8803,
      "§æĨ": 8804,
      "çļĦäºĶ": 8805,
      "æľīä¸Ģåıª": 8806,
      "å¤©æīį": 8807,
      "å¤§çģ«": 8808,
      "åħīå½±": 8809,
      "æĥ³æ³ķ": 8810,
      "è¿ĺè®°å¾Ĺ": 8811,
      "å¥¹æĬĬ": 8812,
      "æĪĲéĥ½": 8813,
      "æģŃ": 8814,
      "å±±æŀĹ": 8815,
      "æĤ´": 8816,
      "çŁ¥æĻĵ": 8817,
      "ä»Ģä¹Īåĳ¢": 8818,
      "å®ĥä»¬æĺ¯": 8819,
      "çŀĮ": 8820,
      "äº¡çģµ": 8821,
      "å¯ĨéĽĨ": 8822,
      "è¯»èĢħ": 8823,
      "çģ°æļĹ": 8824,
      "åĵŃå£°": 8825,
      "æŁĶåĴĮ": 8826,
      "ä¿ĿåŃĺ": 8827,
      "åĮºåĪ«": 8828,
      "çļĦåĩī": 8829,
      "çļĦç²ī": 8830,
      "åĨĴçĿĢ": 8831,
      "çļĦæ¡¥": 8832,
      "æµ©çĢļ": 8833,
      "çĥ¦æģ¼": 8834,
      "æį§çĿĢ": 8835,
      "çľ¨çľ¼": 8836,
      "çļĦèĤĮèĤ¤": 8837,
      "21": 8838,
      "24": 8839,
      "ĭèŁ": 8840,
      "çļĦåĪº": 8841,
      "æ°Ľ": 8842,
      "é»Ľ": 8843,
      "é£İåĴĮ": 8844,
      "éĽ¨å£°": 8845,
      "é«ĺåº¦": 8846,
      "æ¯ıå½ĵ": 8847,
      "ä¹¦é¦Ĩ": 8848,
      "åı¦ä¸ĢäºĽ": 8849,
      "å°½éĩı": 8850,
      "æ»´èĲ½": 8851,
      "ä¸ĢæĿ¡æ²³": 8852,
      "æĿ¾å¼Ģ": 8853,
      "æŀ¯æŀĿ": 8854,
      "è£Ĥå¼Ģ": 8855,
      "ç«¹æŀĹ": 8856,
      "ç¢°æĴŀ": 8857,
      "æĬ¹åİ»": 8858,
      "éĽķåĪ»": 8859,
      "ä¸Īéĩı": 8860,
      "çļĦåĹĵ": 8861,
      "Ŀéħ¿": 8862,
      "çļĦåı¥åŃĲ": 8863,
      "ä¸Ģæŀ¶": 8864,
      "ä¸įåĪĨ": 8865,
      "çļĦèĨ": 8866,
      "çľ¯": 8867,
      "å¤§å¤§": 8868,
      "æ°´åºķ": 8869,
      "éķ¿åŁİ": 8870,
      "ä½Ĩè¿Ļ": 8871,
      "åįģä¸ª": 8872,
      "åĺĢ": 8873,
      "è¸Ŀ": 8874,
      "çīĽå¥¶": 8875,
      "åĽ°éļ¾": 8876,
      "æ¸ĹéĢı": 8877,
      "çļĦè½®å»ĵ": 8878,
      "åĽĽéĿ¢åħ«æĸ¹": 8879,
      "çļĦæ¸´æľĽ": 8880,
      "çļĦçŃīå¾ħ": 8881,
      "60": 8882,
      "Ġä»ĸ": 8883,
      "äº¢": 8884,
      "è¿¢": 8885,
      "èĢ¿": 8886,
      "å¤©éĻħ": 8887,
      "è¿ĩåº¦": 8888,
      "èµ·çĤ¹": 8889,
      "å¤´èĦĳ": 8890,
      "å¤ļå¤ļ": 8891,
      "éĥ½åı¯ä»¥": 8892,
      "åıĳæĬĸ": 8893,
      "çĻ½é©¬": 8894,
      "åį´æĹłæ³ķ": 8895,
      "çļĦåĳ¨": 8896,
      "æĿ¾é¼ł": 8897,
      "çļĦçİ©": 8898,
      "è¿İé£İ": 8899,
      "çļĦæ¸ħæĻ¨": 8900,
      "ĭèŁĢ": 8901,
      "ĵè¨Ģ": 8902,
      "ĶæĤ´": 8903,
      "ä¸įåĲĪ": 8904,
      "ä¸ĭéĻį": 8905,
      "éĤ£æĺ¯ä¸Ģ": 8906,
      "åıªéľĢ": 8907,
      "åĢĶ": 8908,
      "æ¡Ķ": 8909,
      "é£ŀå¥Ķ": 8910,
      "æĺ¥åħī": 8911,
      "æĽ´é«ĺ": 8912,
      "ä¸¤å¤©": 8913,
      "ä¸¤è¾¹": 8914,
      "åľŁå£¤": 8915,
      "æİīè¿Ľ": 8916,
      "åĢĴäºĨ": 8917,
      "åĵįäºĨ": 8918,
      "çļĦåħīæĺİ": 8919,
      "åĹľ": 8920,
      "èµ¶æĿ¥": 8921,
      "çļĦèį£": 8922,
      "çļĦçĻ½äºĳ": 8923,
      "æ®µæĹ¶éĹ´": 8924,
      "100": 8925,
      "çģ¿çĦ¶": 8926,
      "çļĦç¼º": 8927,
      "ä¿¯è§Ĩ": 8928,
      "ä¸ĵæ³¨": 8929,
      "ç¿łç»¿": 8930,
      "æĦıè¯ĨåĪ°": 8931,
      "æ§Ĳæłĳ": 8932,
      "çļĦé¥¥": 8933,
      "an": 8934,
      "ä¸Ĭå²¸": 8935,
      "çļĦèŃ": 8936,
      "æĹ¶è¾°": 8937,
      "ä¹Łå°±æĺ¯": 8938,
      "èĩªåĬ¨": 8939,
      "æ°´åĴĮ": 8940,
      "éĥ½æĺ¯ä¸Ģ": 8941,
      "å¾ĹæĪĳ": 8942,
      "éķ¿åľ¨": 8943,
      "æľĢå°ı": 8944,
      "çļĦäººç±»": 8945,
      "ç»ĵæŀĦ": 8946,
      "æĳ¸ç´¢": 8947,
      "éĵ¶è¡Į": 8948,
      "æİĮå¿ĥ": 8949,
      "çļĦæ»ĭ": 8950,
      "æī©æķ£": 8951,
      "è¢ħè¢ħ": 8952,
      "īè·": 8953,
      "çļĦäº²äºº": 8954,
      "ä¸ĢåĪĨ": 8955,
      "ä¸ĢåĪĹ": 8956,
      "ä½łä¸Ģ": 8957,
      "æĸĲ": 8958,
      "çĶŁæľº": 8959,
      "å°ıéĽ¨": 8960,
      "æ²¡èĥ½": 8961,
      "éĥ½å¾Ī": 8962,
      "å¥¹å°±": 8963,
      "å¤ľå¹ķ": 8964,
      "çķľ": 8965,
      "å±±å³°": 8966,
      "è¿ĽåĮĸ": 8967,
      "çģ«å±±": 8968,
      "å¾Īå¤ļå¹´": 8969,
      "ä¸īè§Ĵ": 8970,
      "æ¢¦æ¸¸": 8971,
      "æ²īéĹ·": 8972,
      "è¯Ŀè¯Ń": 8973,
      "å¾ĢæĺĶ": 8974,
      "åĲĥå®Į": 8975,
      "æİ¥çº³": 8976,
      "æĮĩçĿĢ": 8977,
      "çĥŃå¸¦": 8978,
      "æĢĢä¸Ń": 8979,
      "æĶ¶åĪ°": 8980,
      "å±ĭåŃĲéĩĮ": 8981,
      "åįİä¸½": 8982,
      "çļĦå±ħ": 8983,
      "éĺ´è°ĭ": 8984,
      "æ¹ĸéĿ¢": 8985,
      "èĭ¥æĹł": 8986,
      "èĦ±èĲ½": 8987,
      "æł¼å¤ĸ": 8988,
      "å¼ķèµ·": 8989,
      "æĬ½å±ī": 8990,
      "ç¡¬å¸ģ": 8991,
      "æ·ĭæ·ĭ": 8992,
      "éĻĨåľ°": 8993,
      "åĸĥåĸĥ": 8994,
      "çļĦå¼Ģå§ĭ": 8995,
      "çļĦè±¡": 8996,
      "çļĦèĸĦ": 8997,
      "çļĦèĢ³": 8998,
      "æĪ®": 8999,
      "æĪĳæĺ¯ä¸Ģ": 9000,
      "çļĦè¸": 9001,
      "åĴ§": 9002,
      "å¤§èĦĳ": 9003,
      "å¤§èĩªçĦ¶": 9004,
      "è½´": 9005,
      "æ°´ä¸Ĭ": 9006,
      "ç©ºçļĦ": 9007,
      "ä¸İäºº": 9008,
      "ä¸İæŃ»": 9009,
      "æŃ¤çĶŁ": 9010,
      "æīĵç£¨": 9011,
      "æ»¡èĦ¸": 9012,
      "åľŁæĭ¨é¼ł": 9013,
      "å¹³ä¼¯": 9014,
      "è¿Ļä¸ªåŁİå¸Ĥ": 9015,
      "åĨ·åį´": 9016,
      "æĮĩæĮ¥": 9017,
      "ä¾Ŀç¨Ģ": 9018,
      "çļĦå¥Ķ": 9019,
      "çļĦèº«è¾¹": 9020,
      "éĺ¿è§Ĵ": 9021,
      "éĽ¾æ°Ķ": 9022,
      "æĳ¸åĪ°": 9023,
      "èĢĥèĻĳ": 9024,
      "æ¨±èĬ±": 9025,
      "æ¨±æ¡ĥ": 9026,
      "çļĦé¡¶": 9027,
      "éĤĢè¯·": 9028,
      "æĿ¥å¾ĹåıĬ": 9029,
      "æĪĳçİ°åľ¨": 9030,
      "åı¼": 9031,
      "ãĢĤãĢį": 9032,
      "åĨ¤": 9033,
      "çļĦé¾": 9034,
      "éĤ£å°±æĺ¯": 9035,
      "æĹ¶èĬĤ": 9036,
      "ä¹ĭéĹ¨": 9037,
      "å±±å·Ŀ": 9038,
      "æīĭå¿ĥ": 9039,
      "ä¾Ī": 9040,
      "çļĦäººéĹ´": 9041,
      "ä½ĨæĦ¿": 9042,
      "åıĺä¸º": 9043,
      "ç¾İçļĦ": 9044,
      "æĪĳçļĦçĶŁæ´»": 9045,
      "éħĴåĲ§": 9046,
      "éħĴåºĹ": 9047,
      "æ¶ĪçģŃ": 9048,
      "æ±Łè¾¹": 9049,
      "å©¿": 9050,
      "çļĦæµĵ": 9051,
      "æıĲçĲ´": 9052,
      "éĢłæĪĲ": 9053,
      "ä¹Įé»ĳ": 9054,
      "çļĦåį±": 9055,
      "æİĴéĺŁ": 9056,
      "ç¬ĶçĽ´": 9057,
      "æĢ¥ä¿ĥ": 9058,
      "ä»»ä½ķäºº": 9059,
      "çļĦåĺ´å·´": 9060,
      "ç»ĦæĪĲ": 9061,
      "å¾ģæľį": 9062,
      "çļĦçİ°å®ŀ": 9063,
      "ä¿ŀå¹³ä¼¯": 9064,
      "ï¼ĮâĢĿ": 9065,
      "åľ¨éĺ³åħīä¸ĭ": 9066,
      "ä¸įåıĳ": 9067,
      "ä½łåİ»": 9068,
      "å°ıçĭĹ": 9069,
      "å¾ĹæĦı": 9070,
      "èµ°è¿ľ": 9071,
      "å¥½åĩł": 9072,
      "èº«å½±": 9073,
      "é»ĳæ´ŀ": 9074,
      "éľŃ": 9075,
      "éħ¥": 9076,
      "ç»Īç»ĵ": 9077,
      "åĨ·éĿĻ": 9078,
      "ç»¿èī²çļĦ": 9079,
      "æ°¸çĶŁ": 9080,
      "æľĿéĺ³": 9081,
      "æ¹ĸæ³Ĭ": 9082,
      "èĭ¥å¹²": 9083,
      "è§Ĥä¼Ĺ": 9084,
      "å¼ķé¢Ĩ": 9085,
      "æ²¿éĢĶ": 9086,
      "éĵ¶æĿı": 9087,
      "èŀįåħ¥": 9088,
      "ä¼ĳæŃ¢": 9089,
      "çļĦè£¸": 9090,
      "æ²¾æ»¡": 9091,
      "å±ıå¹ķ": 9092,
      "çļĦåİŁéĩİ": 9093,
      "éªĨé©¼": 9094,
      "çļĦå±ģèĤ¡": 9095,
      "ç»İ": 9096,
      "éĤ£é¢Ĺ": 9097,
      "æĭĺ": 9098,
      "èĢĮå¥¹": 9099,
      "æĦ£": 9100,
      "ä¹ĭäºĮ": 9101,
      "è®©å®ĥä»¬": 9102,
      "ï¼Łï¼ī": 9103,
      "æµģä¸ĭ": 9104,
      "å°ĨæĪĳä»¬": 9105,
      "ä»Ģä¹Īä¹Łä¸į": 9106,
      "æīĵæī«": 9107,
      "å¥³æĢ§": 9108,
      "æ¯ıä¸Ģä¸ªäºº": 9109,
      "æĹ©æĺ¥": 9110,
      "å»·": 9111,
      "åįĹäº¬": 9112,
      "åĲ¹æĭĤ": 9113,
      "ä»¿ä½Ľæĺ¯": 9114,
      "éĻ¢åŃĲ": 9115,
      "çļĦåħīäº®": 9116,
      "åİĭæĬĳ": 9117,
      "æ¨¡æł·": 9118,
      "è®°å¿Ĩä¸Ń": 9119,
      "å®¡åĪ¤": 9120,
      "çļĦæµªèĬ±": 9121,
      "å±ĭæªĲä¸ĭ": 9122,
      "ä¸įå®¹æĺĵ": 9123,
      "ä½łåį´": 9124,
      "ä½łå·²ç»ı": 9125,
      "çļĦè¹": 9126,
      "å¤§æ¥¼": 9127,
      "è¿ĺå¾Ĺ": 9128,
      "è¢«éģĹå¿ĺ": 9129,
      "åĬ¨äºº": 9130,
      "é£ŀèµ°": 9131,
      "ç¿°": 9132,
      "éħĿéħ¿": 9133,
      "å®īçĦ¶": 9134,
      "å¾Ģä¸Ĭ": 9135,
      "è¿Ļä¸ªæĹ¶åĢĻ": 9136,
      "æĢĢåŃķ": 9137,
      "èįĴèįī": 9138,
      "è¿½å¯»": 9139,
      "çļĦèĪª": 9140,
      "å¿ĻçĿĢ": 9141,
      "æ±īåŃĹ": 9142,
      "è´´åľ¨": 9143,
      "ç§ģè¯Ń": 9144,
      "æµĩçģĮ": 9145,
      "çļĦè¦ģ": 9146,
      "çļĦèŃ¦": 9147,
      "åľ¨å¤ľæĻļ": 9148,
      "åŃ½": 9149,
      "ä½łçľĭè§ģ": 9150,
      "åİ»ä¸ĸ": 9151,
      "å²Ķ": 9152,
      "æĶ¾çĿĢ": 9153,
      "å°ĳäºĨ": 9154,
      "ä¿¡ä»»": 9155,
      "åģļçĿĢ": 9156,
      "è·Łä½ł": 9157,
      "ç«ĭå¿Ĺ": 9158,
      "æĢĢæı£": 9159,
      "é¼İ": 9160,
      "çļĦéĺ¿": 9161,
      "åĪĿæģĭ": 9162,
      "æį¢äºĨ": 9163,
      "çļĦèį·": 9164,
      "ä¸Ģå®ļä¼ļ": 9165,
      "å²Ľä¸Ĭ": 9166,
      "çĸ¯åŃĲ": 9167,
      "é¡¿æĹ¶": 9168,
      "èººåľ¨åºĬä¸Ĭ": 9169,
      "æĲ¬è¿Ĳ": 9170,
      "è´Ŀå£³": 9171,
      "ç¡ķå¤§": 9172,
      "è¤Ĳèī²": 9173,
      "çļĦéĩį": 9174,
      "æĪĳæľĢ": 9175,
      "ä¸įå±ŀäºİ": 9176,
      "å¥Ħ": 9177,
      "æ¯ħ": 9178,
      "æĪĳä»¬éĥ½æĺ¯": 9179,
      "å¼Ģå¿ĥ": 9180,
      "çĻĮ": 9181,
      "å±±èĦī": 9182,
      "é£ŀè¶Ĭ": 9183,
      "åħ¥åı£": 9184,
      "åĩłå£°": 9185,
      "çķĻçĿĢ": 9186,
      "çĶµæ¢¯": 9187,
      "äºĶä¸ª": 9188,
      "æĿĳèĲ½": 9189,
      "ç¿»éĺħ": 9190,
      "çĹħäºĨ": 9191,
      "å¼ºå¤§": 9192,
      "é²ľæĺİ": 9193,
      "åħ´è¶£": 9194,
      "çļĦæŃĮåĶ±": 9195,
      "çļĦçĸ¯": 9196,
      "çļĦæļĸ": 9197,
      "åī¥å¼Ģ": 9198,
      "çļĦæĭ¥": 9199,
      "ä¸Ģåı£æ°Ķ": 9200,
      "é©¶è¿ĩ": 9201,
      "èĪªè¡Į": 9202,
      "çļĦçº¿æĿ¡": 9203,
      "è·µè¸ı": 9204,
      "25": 9205,
      "çļĤ": 9206,
      "åľ¨ä¸Ģçīĩ": 9207,
      "çĿĢçľ¼çĿĽ": 9208,
      "å½¬": 9209,
      "ä¸Ģä¸ªåŃĹ": 9210,
      "éĢ»è¾ĳ": 9211,
      "æ¯Ļ": 9212,
      "ä¹ĭå£°": 9213,
      "å¥½äºº": 9214,
      "éķ¿çļĦ": 9215,
      "èĪ±": 9216,
      "ä¸ĸäºĭ": 9217,
      "åĨįæ²¡æľī": 9218,
      "æįİ": 9219,
      "æ²īæ·Ģ": 9220,
      "æīįçŁ¥éģĵ": 9221,
      "è¿Ļä¸ªè¯į": 9222,
      "ç»Ĩèĥŀ": 9223,
      "ç»Ŀä¸į": 9224,
      "æĬ±ä½ı": 9225,
      "éĻĪè¡į": 9226,
      "åı·çłģ": 9227,
      "ç¡®è®¤": 9228,
      "ç¾İä¸½çļĦ": 9229,
      "èĥ¸èĨĽ": 9230,
      "åŁºæľ¬": 9231,
      "çļĦèīº": 9232,
      "å¥ĭåĬĽ": 9233,
      "æį¡èµ·": 9234,
      "åĩĭè°¢": 9235,
      "åĸ³åĸ³": 9236,
      "Ĵè·ļ": 9237,
      "åľ¨é£İ": 9238,
      "åľ¨æľĢ": 9239,
      "è¿Ļä¸Ģæ¬¡": 9240,
      "ä»ĸä¹Ł": 9241,
      "éĤ£åº§": 9242,
      "åĴĮå°ļ": 9243,
      "æĭ£": 9244,
      "æĪĳä»¬ä¸į": 9245,
      "æĻĸ": 9246,
      "åĵĴ": 9247,
      "å¿ĥè¯´": 9248,
      "éļħ": 9249,
      "çĻ½æ²Ļ": 9250,
      "åĽŀåºĶ": 9251,
      "æ¶ķ": 9252,
      "åĲĳä¸ľ": 9253,
      "æīĢæľīçļĦäºº": 9254,
      "çļĦéĤ»": 9255,
      "åĸĿèĮ¶": 9256,
      "éĽ¾éĩĮ": 9257,
      "çļĦæłĳæŀĹ": 9258,
      "æĹħé¦Ĩ": 9259,
      "æĬļæħ°": 9260,
      "å¹´è½»äºº": 9261,
      "æĬĹæĭĴ": 9262,
      "çļĦå¦ĩ": 9263,
      "æĮ¡ä½ı": 9264,
      "çļĦéĥ½æĺ¯": 9265,
      "ç¯±ç¬Ĩ": 9266,
      "éĻĪè¡įå¼º": 9267,
      "ä¸Ģéĥ¨åĪĨ": 9268,
      "å°¬": 9269,
      "æ²Ľ": 9270,
      "æµ·é¸¥": 9271,
      "æįĲ": 9272,
      "äºĳç«¯": 9273,
      "å¹²èĦĨ": 9274,
      "äºĨä¸Ģå£°": 9275,
      "æĸŃè£Ĥ": 9276,
      "å®¹åĻ¨": 9277,
      "å¤ıå¤ľ": 9278,
      "åŃ¤çĭ¬çļĦ": 9279,
      "åºĬåįķ": 9280,
      "æ°¸è¿ľæĺ¯": 9281,
      "çļĦæłĳæŀĿ": 9282,
      "ç¡®ä¿¡": 9283,
      "ç½Ĺé©¬": 9284,
      "æĸĳæĸĳ": 9285,
      "åħĥç´ł": 9286,
      "èĤ©ä¸Ĭ": 9287,
      "æ»©ä¸Ĭ": 9288,
      "æĪĳåıªæĥ³": 9289,
      "åī¥èĲ½": 9290,
      "çļĦé¦Ļåĳ³": 9291,
      "åĩĦåĩī": 9292,
      "ç¬¨æĭĻ": 9293,
      "æ£ºæĿĲ": 9294,
      "çļĦå¿µå¤´": 9295,
      "§æĨ¬": 9296,
      "23": 9297,
      "ĤéĢ": 9298,
      "èĦĲ": 9299,
      "åĸĢ": 9300,
      "éļ¶": 9301,
      "åĽŀæĹĭ": 9302,
      "èĭŁ": 9303,
      "è¿ĽæĪĳ": 9304,
      "ç§įç§į": 9305,
      "è½»å¾®": 9306,
      "è®°èµ·": 9307,
      "çļĦå°ıè·¯": 9308,
      "åıªæľīæĪĳ": 9309,
      "èļ¯èļĵ": 9310,
      "æĮģä¹ħ": 9311,
      "ç¯Ŀçģ«": 9312,
      "çļĦç²®": 9313,
      "æĮīçħ§": 9314,
      "æĳ©æĵ¦": 9315,
      "éĽķå¡ĳ": 9316,
      "æīĶæİī": 9317,
      "çļĦéŀŃ": 9318,
      "çļĦèĳ¡èĲĦ": 9319,
      "åĲĨåĸĿ": 9320,
      "ĤéĢħ": 9321,
      "çļĦæĪĳä»¬": 9322,
      "çļĦèŀ": 9323,
      "æĹ¶æĹ¶": 9324,
      "å¤§è±¡": 9325,
      "ä¹ĭæīĭ": 9326,
      "èĥ½åĲ¦": 9327,
      "çĻ½é¹Ń": 9328,
      "è§ģäºĨ": 9329,
      "åĽŀåĵį": 9330,
      "æµģåĲĳ": 9331,
      "èĥ³èĨĬ": 9332,
      "ç¦»å®¶": 9333,
      "è°ģä¹Ł": 9334,
      "äºĨä¸Ģæ¬¡": 9335,
      "éļ¾è¿ĩ": 9336,
      "æĢĿç»´": 9337,
      "é£ĺæĿ¥": 9338,
      "æĤ²æĤ¯": 9339,
      "çļĦåĽ°": 9340,
      "éĽ¾éľ¾": 9341,
      "éĻ·éĺ±": 9342,
      "åºĶè¯¥æĺ¯": 9343,
      "çļĦéĴ¥åĮĻ": 9344,
      "æ·ĭæ¼ĵ": 9345,
      "æĴŃç§į": 9346,
      "åºĨå¹¸": 9347,
      "çļĦç»ĵå±Ģ": 9348,
      "´å°¬": 9349,
      "Ġæľī": 9350,
      "çļĦä¸Ĭ": 9351,
      "çļĦè¯´": 9352,
      "æĪĳä¹Łæĺ¯": 9353,
      "åľ¨æ²¡æľī": 9354,
      "æĺ¯å®ĥ": 9355,
      "å°´å°¬": 9356,
      "ä¸įä¼ĳ": 9357,
      "ç»°": 9358,
      "éĤ£ä½į": 9359,
      "éĤ£æ£µ": 9360,
      "åħīè¾ī": 9361,
      "è¦ģåľ¨": 9362,
      "å¾Ĺä¸Ĭ": 9363,
      "èº«èº¯": 9364,
      "å®¶æĹı": 9365,
      "çģ«åħī": 9366,
      "äº®çĿĢ": 9367,
      "æĦŁæ¿Ģ": 9368,
      "ä½ķåĨµ": 9369,
      "çĮ©": 9370,
      "åŃ¦å®¶": 9371,
      "åŁİåł¡": 9372,
      "æľºåľº": 9373,
      "çĲĨåıĳ": 9374,
      "çĲĨçŁ³": 9375,
      "åĿĹçŁ³å¤´": 9376,
      "çļĦçľ¼éĩĮ": 9377,
      "çŀ°": 9378,
      "èĻļå¼±": 9379,
      "ä»»åĩŃ": 9380,
      "ç¿»è¯ĳ": 9381,
      "åıĭäºº": 9382,
      "å«Ĥ": 9383,
      "æĪıåī§": 9384,
      "çļĦå¼§": 9385,
      "æĬĸèĲ½": 9386,
      "çļĦå¢¨": 9387,
      "çļĦçĸ²": 9388,
      "æĺłçħ§": 9389,
      "çļĦæ¡Į": 9390,
      "åĵĳå·´": 9391,
      "å¿½çĦ¶æĥ³èµ·": 9392,
      "æİĢå¼Ģ": 9393,
      "çº¤ç»Ĩ": 9394,
      "ç¼Ńç»ķ": 9395,
      "æĪĳè¯»": 9396,
      "ä¸įå¯¹": 9397,
      "èµļ": 9398,
      "æĥ¦": 9399,
      "åİĺ": 9400,
      "åĬ±": 9401,
      "æĪĳä»¬å°Ĩ": 9402,
      "æĽ°": 9403,
      "è¯Ĺç¯ĩ": 9404,
      "æłĳå½±": 9405,
      "è½¦åŃĲ": 9406,
      "èħĳ": 9407,
      "éĨº": 9408,
      "ä½ķåħ¶": 9409,
      "åĸľçĪ±": 9410,
      "æ¶Īæķ£": 9411,
      "å¼Ģå§ĭäºĨ": 9412,
      "ä¸Ģä¸ªäººåľ¨": 9413,
      "å¯Ĥå¯¥": 9414,
      "æĬ±ç´§": 9415,
      "æĪĳæĺ¯ä½ł": 9416,
      "å¥Ķèµ°": 9417,
      "ä¸ĢçĤ¹åĦ¿": 9418,
      "åĺ´è§Ĵ": 9419,
      "ä¿®æĶ¹": 9420,
      "çļĦè¯Ĺç¯ĩ": 9421,
      "çļĦçī§": 9422,
      "ç»Łä¸Ģ": 9423,
      "æĨİ": 9424,
      "çĻ»ä¸Ĭ": 9425,
      "æ½ľä¼ı": 9426,
      "æĳ©æīĺ": 9427,
      "èĢ»è¾±": 9428,
      "æĭ³å¤´": 9429,
      "æħµæĩĴ": 9430,
      "©ç½ļ": 9431,
      "åľ¨éĽ¨ä¸Ń": 9432,
      "æĿ¥ä¸ĸ": 9433,
      "ä¸ĭæ°´": 9434,
      "èĥ½åĬĽ": 9435,
      "å½ĵå®ĥ": 9436,
      "éĿĻå¯Ĥ": 9437,
      "çĽ¸æ¯Ķ": 9438,
      "ä¸¤äºº": 9439,
      "åĲįè¯į": 9440,
      "åı«éĨĴ": 9441,
      "è¡£è¡«": 9442,
      "ç»Ĩç¢İ": 9443,
      "èĭ¦èĭ¦": 9444,
      "çĶ»éĿ¢": 9445,
      "ä¸Ŀæ¯«": 9446,
      "éģįéĩİ": 9447,
      "æĨĶæĤ´": 9448,
      "æī§çĿĢ": 9449,
      "çļĦåĢ¾": 9450,
      "çļĦæŁĲä¸ª": 9451,
      "çļĦç¤¼çī©": 9452,
      "æĵ¦èĤ©èĢĮè¿ĩ": 9453,
      "åľ¨éĩĮéĿ¢": 9454,
      "ä¸įç®Ĺ": 9455,
      "çĿĢçľ¼": 9456,
      "çļĦé³": 9457,
      "ä»ĸä»İ": 9458,
      "åĩºæ²¡": 9459,
      "èĩªä»İ": 9460,
      "åĲİçļĦ": 9461,
      "ä¹ĭæŃ»": 9462,
      "åıĳæĺİ": 9463,
      "éľĨ": 9464,
      "çĲ¼": 9465,
      "å¤ªä¹ħ": 9466,
      "ä¸īçĻ¾": 9467,
      "ç½ķ": 9468,
      "åĩłçīĩ": 9469,
      "åħ³èĬĤ": 9470,
      "æĢ»è¦ģ": 9471,
      "é±¼ç¾¤": 9472,
      "äº¤åĩº": 9473,
      "äº¤ç»ĩ": 9474,
      "ç»Ŀåı¥": 9475,
      "åĵįäº®": 9476,
      "æľĢåĲİä¸Ģä¸ª": 9477,
      "ç¿»é£ŀ": 9478,
      "æ°ĳéĹ´": 9479,
      "ä¹±äºĨ": 9480,
      "çļĦåħīè¾ī": 9481,
      "çļĦæĦ¤": 9482,
      "å¹½æ·±": 9483,
      "ä¸¥éĩį": 9484,
      "å®½å¹¿": 9485,
      "æķĳèµİ": 9486,
      "ç§°ä¸º": 9487,
      "åīªåĪĢ": 9488,
      "ä¿¯èº«": 9489,
[...]
